#include "model_data.h"

// We need to keep the data array aligned on some architectures.
#ifdef __has_attribute
#define HAVE_ATTRIBUTE(x) __has_attribute(x)
#else
#define HAVE_ATTRIBUTE(x) 0
#endif
#if HAVE_ATTRIBUTE(aligned) || (defined(__GNUC__) && !defined(__clang__))
#define DATA_ALIGN_ATTRIBUTE __attribute__((aligned(4)))
#else
#define DATA_ALIGN_ATTRIBUTE
#endif


const unsigned char g_model_data[] DATA_ALIGN_ATTRIBUTE = {
	0x20, 0x0, 0x0, 0x0, 0x54, 0x46, 0x4c, 0x33, 0x0, 0x0, 0x0, 0x0, 0x14, 0x0, 0x20, 0x0, 0x1c, 0x0, 0x18, 0x0, 0x14, 0x0, 0x10, 0x0, 0xc, 0x0, 0x0, 0x0, 0x8, 0x0, 0x4, 0x0, 0x14, 0x0, 0x0, 0x0, 0x1c, 0x0, 0x0, 0x0, 0x1c, 0x0, 0x0, 0x0, 0x9c, 0x0, 0x0, 0x0, 0x74, 0x9, 0x0, 0x0, 0x84, 0x9, 0x0, 0x0, 0xc0, 0x33, 0x0, 0x0, 0x3, 0x0, 0x0, 0x0, 0x0, 0x0, 0x0, 0x0, 0x3, 0x0, 0x0, 0x0, 0x5c, 0x0, 0x0, 0x0, 0x2c, 0x0, 0x0, 0x0, 0x4, 0x0, 0x0, 0x0, 0xb8, 0xff, 0xff, 0xff, 0x4a, 0x0, 0x0, 0x0, 0x4, 0x0, 0x0, 0x0, 0x13, 0x0, 0x0, 0x0, 0x43, 0x4f, 0x4e, 0x56, 0x45, 0x52, 0x53, 0x49, 0x4f, 0x4e, 0x5f, 0x4d, 0x45, 0x54, 0x41, 0x44, 0x41, 0x54, 0x41, 0x0, 0xdc, 0xff, 0xff, 0xff, 0x49, 0x0, 0x0, 0x0, 0x4, 0x0, 0x0, 0x0, 0x13, 0x0, 0x0, 0x0, 0x6d, 0x69, 0x6e, 0x5f, 0x72, 0x75, 0x6e, 0x74, 0x69, 0x6d, 0x65, 0x5f, 0x76, 0x65, 0x72, 0x73, 0x69, 0x6f, 0x6e, 0x0, 0x8, 0x0, 0xc, 0x0, 0x8, 0x0, 0x4, 0x0, 0x8, 0x0, 0x0, 0x0, 0x48, 0x0, 0x0, 0x0, 0x4, 0x0, 0x0, 0x0, 0x13, 0x0, 0x0, 0x0, 0x6d, 0x69, 0x6e, 0x5f, 0x72, 0x75, 0x6e, 0x74, 0x69, 0x6d, 0x65, 0x5f, 0x76, 0x65, 0x72, 0x73, 0x69, 0x6f, 0x6e, 0x0, 0x4b, 0x0, 0x0, 0x0, 0xd4, 0x8, 0x0, 0x0, 0xcc, 0x8, 0x0, 0x0, 0xa4, 0x8, 0x0, 0x0, 0x7c, 0x8, 0x0, 0x0, 0x60, 0x8, 0x0, 0x0, 0x40, 0x8, 0x0, 0x0, 0x20, 0x8, 0x0, 0x0, 0x4, 0x8, 0x0, 0x0, 0xe4, 0x7, 0x0, 0x0, 0xc4, 0x7, 0x0, 0x0, 0x9c, 0x7, 0x0, 0x0, 0x5c, 0x7, 0x0, 0x0, 0x44, 0x7, 0x0, 0x0, 0x74, 0x6, 0x0, 0x0, 0x5c, 0x6, 0x0, 0x0, 0x8c, 0x5, 0x0, 0x0, 0x74, 0x5, 0x0, 0x0, 0xa4, 0x4, 0x0, 0x0, 0x8c, 0x4, 0x0, 0x0, 0x74, 0x4, 0x0, 0x0, 0xa4, 0x3, 0x0, 0x0, 0x54, 0x3, 0x0, 0x0, 0x3c, 0x3, 0x0, 0x0, 0xc, 0x3, 0x0, 0x0, 0x4, 0x3, 0x0, 0x0, 0xfc, 0x2, 0x0, 0x0, 0xf4, 0x2, 0x0, 0x0, 0xec, 0x2, 0x0, 0x0, 0xe4, 0x2, 0x0, 0x0, 0xfc, 0x1, 0x0, 0x0, 0xf4, 0x1, 0x0, 0x0, 0xec, 0x1, 0x0, 0x0, 0xe4, 0x1, 0x0, 0x0, 0xdc, 0x1, 0x0, 0x0, 0xd4, 0x1, 0x0, 0x0, 0xcc, 0x1, 0x0, 0x0, 0xc4, 0x1, 0x0, 0x0, 0xbc, 0x1, 0x0, 0x0, 0xb4, 0x1, 0x0, 0x0, 0xac, 0x1, 0x0, 0x0, 0xa4, 0x1, 0x0, 0x0, 0x9c, 0x1, 0x0, 0x0, 0x94, 0x1, 0x0, 0x0, 0x8c, 0x1, 0x0, 0x0, 0x84, 0x1, 0x0, 0x0, 0x7c, 0x1, 0x0, 0x0, 0x74, 0x1, 0x0, 0x0, 0x6c, 0x1, 0x0, 0x0, 0x64, 0x1, 0x0, 0x0, 0x5c, 0x1, 0x0, 0x0, 0x54, 0x1, 0x0, 0x0, 0x4c, 0x1, 0x0, 0x0, 0x44, 0x1, 0x0, 0x0, 0x3c, 0x1, 0x0, 0x0, 0x34, 0x1, 0x0, 0x0, 0x2c, 0x1, 0x0, 0x0, 0x24, 0x1, 0x0, 0x0, 0x1c, 0x1, 0x0, 0x0, 0x14, 0x1, 0x0, 0x0, 0xc, 0x1, 0x0, 0x0, 0x4, 0x1, 0x0, 0x0, 0xfc, 0x0, 0x0, 0x0, 0xf4, 0x0, 0x0, 0x0, 0xec, 0x0, 0x0, 0x0, 0xe4, 0x0, 0x0, 0x0, 0xdc, 0x0, 0x0, 0x0, 0xd4, 0x0, 0x0, 0x0, 0xcc, 0x0, 0x0, 0x0, 0xc4, 0x0, 0x0, 0x0, 0xbc, 0x0, 0x0, 0x0, 0xb4, 0x0, 0x0, 0x0, 0xac, 0x0, 0x0, 0x0, 0x8c, 0x0, 0x0, 0x0, 0x6c, 0x0, 0x0, 0x0, 0x4, 0x0, 0x0, 0x0, 0x86, 0xf8, 0xff, 0xff, 0x4, 0x0, 0x0, 0x0, 0x58, 0x0, 0x0, 0x0, 0xc, 0x0, 0x0, 0x0, 0x8, 0x0, 0xe, 0x0, 0x8, 0x0, 0x4, 0x0, 0x8, 0x0, 0x0, 0x0, 0x10, 0x0, 0x0, 0x0, 0x28, 0x0, 0x0, 0x0, 0x0, 0x0, 0x6, 0x0, 0x8, 0x0, 0x4, 0x0, 0x6, 0x0, 0x0, 0x0, 0x4, 0x0, 0x0, 0x0, 0x1, 0x0, 0x0, 0x0, 0xeb, 0x3, 0x0, 0x0, 0x0, 0x0, 0xa, 0x0, 0x10, 0x0, 0xc, 0x0, 0x8, 0x0, 0x4, 0x0, 0xa, 0x0, 0x0, 0x0, 0x3, 0x0, 0x0, 0x0, 0x2, 0x0, 0x0, 0x0, 0x4, 0x0, 0x0, 0x0, 0x6, 0x0, 0x0, 0x0, 0x32, 0x2e, 0x31, 0x36, 0x2e, 0x31, 0x0, 0x0, 0xea, 0xf8, 0xff, 0xff, 0x4, 0x0, 0x0, 0x0, 0x10, 0x0, 0x0, 0x0, 0x0, 0x0, 0x0, 0x0, 0x0, 0x0, 0x0, 0x0, 0x0, 0x0, 0x0, 0x0, 0x0, 0x0, 0x0, 0x0, 0x6, 0xf9, 0xff, 0xff, 0x4, 0x0, 0x0, 0x0, 0x10, 0x0, 0x0, 0x0, 0x31, 0x2e, 0x31, 0x34, 0x2e, 0x30, 0x0, 0x0, 0x0, 0x0, 0x0, 0x0, 0x0, 0x0, 0x0, 0x0, 0xc0, 0xce, 0xff, 0xff, 0xc4, 0xce, 0xff, 0xff, 0xc8, 0xce, 0xff, 0xff, 0xcc, 0xce, 0xff, 0xff, 0xd0, 0xce, 0xff, 0xff, 0xd4, 0xce, 0xff, 0xff, 0xd8, 0xce, 0xff, 0xff, 0xdc, 0xce, 0xff, 0xff, 0xe0, 0xce, 0xff, 0xff, 0xe4, 0xce, 0xff, 0xff, 0xe8, 0xce, 0xff, 0xff, 0xec, 0xce, 0xff, 0xff, 0xf0, 0xce, 0xff, 0xff, 0xf4, 0xce, 0xff, 0xff, 0xf8, 0xce, 0xff, 0xff, 0xfc, 0xce, 0xff, 0xff, 0x0, 0xcf, 0xff, 0xff, 0x4, 0xcf, 0xff, 0xff, 0x8, 0xcf, 0xff, 0xff, 0xc, 0xcf, 0xff, 0xff, 0x10, 0xcf, 0xff, 0xff, 0x14, 0xcf, 0xff, 0xff, 0x18, 0xcf, 0xff, 0xff, 0x1c, 0xcf, 0xff, 0xff, 0x20, 0xcf, 0xff, 0xff, 0x24, 0xcf, 0xff, 0xff, 0x28, 0xcf, 0xff, 0xff, 0x2c, 0xcf, 0xff, 0xff, 0x30, 0xcf, 0xff, 0xff, 0x34, 0xcf, 0xff, 0xff, 0x38, 0xcf, 0xff, 0xff, 0x3c, 0xcf, 0xff, 0xff, 0x40, 0xcf, 0xff, 0xff, 0x44, 0xcf, 0xff, 0xff, 0x48, 0xcf, 0xff, 0xff, 0x4c, 0xcf, 0xff, 0xff, 0x50, 0xcf, 0xff, 0xff, 0x54, 0xcf, 0xff, 0xff, 0x58, 0xcf, 0xff, 0xff, 0x5c, 0xcf, 0xff, 0xff, 0x60, 0xcf, 0xff, 0xff, 0x64, 0xcf, 0xff, 0xff, 0xca, 0xf9, 0xff, 0xff, 0x4, 0x0, 0x0, 0x0, 0xd8, 0x0, 0x0, 0x0, 0x42, 0xfc, 0x1, 0xd5, 0x18, 0xc, 0x95, 0xeb, 0xf3, 0x3a, 0xa, 0xf4, 0x20, 0x16, 0x19, 0xda, 0xe1, 0xfc, 0x5b, 0xfb, 0x1c, 0x31, 0xea, 0xe3, 0x81, 0x2e, 0x19, 0xc9, 0xbf, 0x3a, 0x4c, 0x24, 0x44, 0x58, 0x2a, 0x37, 0xa4, 0xbb, 0xd9, 0x8, 0x34, 0x0, 0x3a, 0x2e, 0x28, 0x87, 0x17, 0xae, 0xdd, 0x28, 0xfc, 0x1b, 0x7f, 0x34, 0xc5, 0xe1, 0xe5, 0x2b, 0x16, 0x1c, 0x2, 0x81, 0xfb, 0xf8, 0x10, 0xd4, 0xfd, 0xf7, 0xe1, 0x3d, 0x9f, 0xf1, 0x1c, 0x3c, 0xff, 0xd2, 0xe9, 0x14, 0x40, 0xac, 0x3d, 0xe1, 0x4, 0xf0, 0x2c, 0xff, 0xe1, 0xd7, 0xbc, 0xf5, 0x97, 0x41, 0xaa, 0xe6, 0x29, 0x2, 0xda, 0xb, 0xf4, 0xc0, 0x68, 0x81, 0xfe, 0x11, 0xe9, 0xc7, 0x13, 0xeb, 0x36, 0xba, 0xcb, 0x36, 0x45, 0x2d, 0x11, 0xf5, 0x9, 0x61, 0xc1, 0xd6, 0xe0, 0xef, 0x18, 0x42, 0xff, 0xf2, 0x7f, 0xf2, 0xf7, 0xdf, 0x98, 0xb4, 0xf9, 0x40, 0x36, 0x1c, 0x2c, 0x5, 0x27, 0x8, 0x0, 0x20, 0x81, 0x14, 0x6, 0x10, 0x22, 0x10, 0xf8, 0x14, 0x10, 0x9e, 0xf1, 0xc9, 0xfc, 0x12, 0xb6, 0xe9, 0xec, 0xf7, 0xbf, 0x21, 0xf4, 0xe2, 0xf2, 0x6f, 0x24, 0xea, 0xf0, 0xef, 0x0, 0x81, 0x94, 0xc4, 0x24, 0x31, 0x1c, 0xcf, 0xaf, 0x21, 0x9a, 0xb1, 0x90, 0xd0, 0x14, 0x4f, 0xe6, 0xd6, 0x30, 0xe5, 0xc7, 0x81, 0x2d, 0xc9, 0xc5, 0xc3, 0xc9, 0xe9, 0xe0, 0x2b, 0xd1, 0x32, 0x9, 0xeb, 0xf2, 0xee, 0xdb, 0x85, 0x32, 0xba, 0xda, 0xcb, 0xb6, 0xe9, 0xa, 0x14, 0x4c, 0xd0, 0xff, 0xff, 0x50, 0xd0, 0xff, 0xff, 0x54, 0xd0, 0xff, 0xff, 0x58, 0xd0, 0xff, 0xff, 0x5c, 0xd0, 0xff, 0xff, 0xc2, 0xfa, 0xff, 0xff, 0x4, 0x0, 0x0, 0x0, 0x20, 0x0, 0x0, 0x0, 0x0, 0x0, 0x0, 0x0, 0x0, 0x0, 0x0, 0x0, 0x0, 0x0, 0x0, 0x0, 0x0, 0x0, 0x0, 0x0, 0x0, 0x0, 0x0, 0x0, 0x0, 0x0, 0x0, 0x0, 0x0, 0x0, 0x0, 0x0, 0x0, 0x0, 0x0, 0x0, 0xee, 0xfa, 0xff, 0xff, 0x4, 0x0, 0x0, 0x0, 0x8, 0x0, 0x0, 0x0, 0x7f, 0xd4, 0xc7, 0x29, 0x17, 0x80, 0x4e, 0x61, 0x2, 0xfb, 0xff, 0xff, 0x4, 0x0, 0x0, 0x0, 0x40, 0x0, 0x0, 0x0, 0xe8, 0x81, 0xd, 0x52, 0x21, 0x51, 0x39, 0x45, 0x81, 0x3e, 0x6b, 0x9c, 0x64, 0xc7, 0x58, 0xfe, 0x1e, 0x23, 0xef, 0x9e, 0x81, 0xee, 0x3e, 0x5d, 0x29, 0x81, 0x14, 0xf5, 0x72, 0x1, 0x94, 0x24, 0xff, 0x19, 0xcd, 0xc8, 0x7f, 0x10, 0x9d, 0xef, 0x8e, 0x6, 0xa6, 0xf1, 0x1a, 0x81, 0xbc, 0xfc, 0x28, 0x20, 0x22, 0x22, 0x81, 0xfd, 0x9, 0x88, 0x25, 0x5a, 0xd9, 0x9b, 0x34, 0x3e, 0x69, 0x81, 0x4e, 0xfb, 0xff, 0xff, 0x4, 0x0, 0x0, 0x0, 0xc0, 0x0, 0x0, 0x0, 0xd8, 0x7f, 0x6, 0xf5, 0xf2, 0xe0, 0xfd, 0x3, 0x0, 0x64, 0x12, 0x12, 0xf8, 0xf7, 0xed, 0x17, 0xdb, 0xf1, 0x17, 0x2e, 0xdf, 0xb, 0xf7, 0x1a, 0xab, 0xce, 0xd3, 0x7, 0xc2, 0x30, 0xe8, 0x1a, 0xcb, 0xe6, 0x27, 0x32, 0xb9, 0xd4, 0xf2, 0x2b, 0x9a, 0x81, 0x16, 0x3d, 0xc0, 0x21, 0x21, 0x42, 0xb8, 0xd8, 0xc6, 0xeb, 0xe, 0xc4, 0xbe, 0xab, 0xe7, 0x1d, 0x10, 0xc1, 0x97, 0x26, 0xee, 0x3c, 0xa7, 0xdb, 0xfc, 0x99, 0x2, 0xa2, 0xe7, 0x81, 0x7f, 0x22, 0x3d, 0x54, 0xe, 0xf8, 0xec, 0xd7, 0x74, 0xdd, 0xf3, 0x3f, 0x24, 0xd9, 0x6, 0x23, 0x56, 0xce, 0xfa, 0xc0, 0x28, 0x23, 0x96, 0x5b, 0xe5, 0x30, 0xc8, 0xf9, 0x1f, 0xfc, 0xff, 0xb1, 0x8d, 0xf2, 0x8, 0x81, 0x3b, 0x25, 0xe8, 0xd7, 0x99, 0xb5, 0x44, 0xac, 0xff, 0xe8, 0xf, 0xec, 0x7d, 0xd7, 0x81, 0x99, 0x49, 0x2, 0xc9, 0xde, 0x1b, 0xb9, 0xc6, 0xad, 0xf0, 0x3b, 0xbb, 0xe1, 0xa, 0xca, 0xe7, 0x9b, 0x34, 0xcc, 0x9d, 0xc6, 0xdd, 0xeb, 0xf8, 0xfa, 0xe, 0x9, 0x79, 0x55, 0x35, 0x38, 0x2b, 0x18, 0x93, 0xe7, 0x28, 0x43, 0x3b, 0xc, 0xd9, 0x51, 0x81, 0xef, 0x2, 0x5d, 0x81, 0x8b, 0x47, 0xb, 0x14, 0x14, 0xe, 0x0, 0x96, 0x8e, 0x38, 0x2, 0x36, 0x5a, 0xd2, 0xfc, 0xc5, 0xdb, 0xd, 0x36, 0xf6, 0x37, 0xd8, 0xf5, 0x1a, 0xfc, 0xff, 0xff, 0x4, 0x0, 0x0, 0x0, 0x8, 0x0, 0x0, 0x0, 0xfa, 0x80, 0x65, 0xa2, 0x4b, 0x7f, 0x8a, 0x93, 0x2e, 0xfc, 0xff, 0xff, 0x4, 0x0, 0x0, 0x0, 0x8, 0x0, 0x0, 0x0, 0x63, 0x16, 0x80, 0x27, 0x7f, 0xa9, 0x69, 0xc0, 0x42, 0xfc, 0xff, 0xff, 0x4, 0x0, 0x0, 0x0, 0xc0, 0x0, 0x0, 0x0, 0xdd, 0x24, 0xdd, 0x3, 0x2f, 0x90, 0x3c, 0x42, 0xe9, 0x2, 0x42, 0xdc, 0xb0, 0xa0, 0x31, 0x26, 0x54, 0x64, 0x38, 0x77, 0x81, 0xe2, 0xef, 0x48, 0x2e, 0x51, 0x6, 0xb, 0x4b, 0xde, 0x4a, 0xb, 0x1e, 0x27, 0x5, 0xf4, 0x67, 0x7f, 0xd, 0xf5, 0xf4, 0xcb, 0xf8, 0x7e, 0xd4, 0x40, 0x99, 0x5c, 0x12, 0xec, 0x14, 0x37, 0xd0, 0x18, 0x13, 0xb7, 0xda, 0xc2, 0x6, 0x2e, 0xea, 0x1d, 0x5, 0x81, 0xf5, 0xd0, 0xf8, 0x2c, 0xe8, 0x12, 0xe8, 0xab, 0xcb, 0xbc, 0x2e, 0x5e, 0xf8, 0x30, 0x93, 0x4e, 0x99, 0x6, 0xd6, 0x14, 0x3a, 0x5e, 0x96, 0x20, 0x81, 0x1d, 0xf3, 0x9, 0x6d, 0x26, 0x15, 0x16, 0x13, 0xd2, 0xca, 0xe9, 0x12, 0xf1, 0x1e, 0x15, 0x52, 0xe2, 0xe0, 0x4, 0x25, 0x4, 0xd8, 0xb4, 0x81, 0xfe, 0x1c, 0x2c, 0x22, 0x42, 0xc1, 0xee, 0x59, 0x1f, 0xd3, 0x54, 0x1a, 0x52, 0x46, 0x16, 0x7f, 0x30, 0x1b, 0xc3, 0x34, 0x63, 0xe4, 0xd3, 0x10, 0x19, 0x47, 0xc7, 0x58, 0xe1, 0xb3, 0xda, 0xad, 0x3, 0xee, 0xf8, 0xdc, 0xe6, 0xd8, 0x99, 0xda, 0xd, 0x1c, 0x9e, 0xd0, 0x10, 0x9b, 0x0, 0x87, 0xa5, 0xf2, 0xe7, 0x81, 0x94, 0x92, 0xfd, 0xc1, 0x4f, 0xfa, 0x30, 0x1f, 0x27, 0xaf, 0xcf, 0x10, 0x10, 0x29, 0xef, 0x1f, 0x81, 0xef, 0xda, 0x50, 0x34, 0xf0, 0x35, 0xfe, 0xef, 0x3a, 0xf4, 0xe, 0xfd, 0xff, 0xff, 0x4, 0x0, 0x0, 0x0, 0x8, 0x0, 0x0, 0x0, 0xd7, 0x9c, 0xe8, 0x6, 0xcc, 0x7f, 0x80, 0xf3, 0x22, 0xfd, 0xff, 0xff, 0x4, 0x0, 0x0, 0x0, 0xc0, 0x0, 0x0, 0x0, 0x48, 0x21, 0xf6, 0xaf, 0x98, 0xbe, 0x24, 0x19, 0x39, 0x46, 0x20, 0xb3, 0xfe, 0xc5, 0xc, 0xf9, 0xf4, 0xe, 0xfb, 0x21, 0x31, 0x81, 0x2, 0xf3, 0x27, 0x51, 0x40, 0xd3, 0x37, 0xd4, 0xe3, 0x41, 0xd, 0x3d, 0x41, 0x22, 0x7f, 0x1a, 0xdc, 0x7, 0xb5, 0xe5, 0x16, 0x7, 0xfa, 0xcf, 0x2, 0xe4, 0xd3, 0xad, 0x57, 0x2b, 0x3b, 0x31, 0xef, 0xfe, 0xe3, 0xc5, 0x1f, 0xce, 0xc3, 0xf6, 0x10, 0x46, 0x1b, 0xef, 0xd8, 0x81, 0xa7, 0x2f, 0x0, 0x13, 0xf, 0x33, 0x6e, 0xe1, 0x33, 0xda, 0x60, 0xf2, 0xc, 0x48, 0x4f, 0xda, 0x40, 0xf5, 0x5f, 0xf5, 0xd3, 0xf0, 0x14, 0xb2, 0x7f, 0xc2, 0x3e, 0x5a, 0xe6, 0xd1, 0x84, 0xc8, 0x81, 0x38, 0xe, 0x8d, 0xff, 0xd2, 0xc1, 0xf1, 0xb4, 0x10, 0xdb, 0xbf, 0x20, 0xba, 0x0, 0x8, 0xc9, 0xfc, 0xfe, 0xf5, 0xba, 0x81, 0x4a, 0x3, 0x30, 0x2b, 0xf, 0xa3, 0xaf, 0xdf, 0xe, 0x15, 0x22, 0x1a, 0xd9, 0xdc, 0xfc, 0x39, 0xec, 0x3, 0x29, 0xf3, 0xc6, 0x59, 0x9d, 0xcc, 0x2e, 0xbf, 0x9a, 0xf6, 0x6, 0xc5, 0x16, 0x31, 0x6, 0xf6, 0x35, 0x87, 0x5, 0x30, 0xb, 0x3f, 0x14, 0x2c, 0x5a, 0x81, 0xd4, 0x11, 0xd3, 0xa4, 0xcc, 0xcc, 0xdb, 0x73, 0xee, 0x4e, 0xc4, 0xfd, 0x2a, 0xbc, 0x71, 0x7f, 0xef, 0x31, 0x38, 0xec, 0x86, 0xe2, 0xc, 0x91, 0xe1, 0xf1, 0xee, 0xfd, 0xff, 0xff, 0x4, 0x0, 0x0, 0x0, 0x8, 0x0, 0x0, 0x0, 0xe6, 0x12, 0xe0, 0x80, 0x7f, 0xc6, 0x72, 0x4a, 0x2, 0xfe, 0xff, 0xff, 0x4, 0x0, 0x0, 0x0, 0xc0, 0x0, 0x0, 0x0, 0x27, 0x25, 0x14, 0x13, 0x2a, 0xfd, 0xd4, 0x81, 0x6, 0xf6, 0xd1, 0x17, 0x2c, 0x12, 0xea, 0xed, 0x1a, 0xc9, 0xf9, 0xf1, 0x4f, 0x91, 0x6, 0x22, 0x17, 0xdc, 0xc7, 0x2f, 0x3a, 0xec, 0x1d, 0x66, 0x2a, 0xd6, 0x81, 0x27, 0xc6, 0x12, 0x3b, 0x5, 0x2a, 0x1c, 0x8c, 0xdd, 0x16, 0x8d, 0x46, 0xe3, 0x29, 0x57, 0x3a, 0x4c, 0xd9, 0xf5, 0xe1, 0xaf, 0xcc, 0x76, 0xfe, 0xf9, 0x81, 0xe1, 0xe3, 0xeb, 0x26, 0xef, 0x12, 0x8, 0x8e, 0xe0, 0x8, 0xb8, 0xec, 0x1c, 0x81, 0xd, 0xf0, 0x4d, 0xf0, 0x59, 0xd, 0x30, 0xb6, 0x10, 0xa3, 0x1c, 0x33, 0x0, 0xfe, 0xe, 0x16, 0xef, 0xf7, 0xfd, 0xb6, 0xe, 0xe9, 0xd5, 0x28, 0xf4, 0x66, 0xf1, 0xc9, 0x2e, 0x81, 0x0, 0xf3, 0xce, 0x4a, 0xe2, 0xc6, 0x7a, 0xb4, 0xeb, 0x1a, 0xe0, 0x13, 0x2c, 0x8f, 0x10, 0xd5, 0x38, 0x8, 0x5, 0x15, 0x37, 0x23, 0x1, 0xea, 0x29, 0x25, 0x7, 0x7, 0x9, 0x40, 0x21, 0xee, 0xe5, 0x4, 0xeb, 0xc8, 0xec, 0x81, 0xeb, 0xf, 0x81, 0x1f, 0xf2, 0x9c, 0x3d, 0xd3, 0xb5, 0x14, 0xb, 0x3d, 0xbf, 0x5e, 0xdd, 0x65, 0x5e, 0x19, 0x53, 0xf4, 0xca, 0x67, 0xbc, 0x4d, 0x33, 0x81, 0xda, 0x4b, 0x13, 0x1a, 0x3e, 0x3d, 0x18, 0xe5, 0xd4, 0x42, 0xf1, 0x84, 0x3e, 0x2e, 0xd, 0x36, 0x19, 0xab, 0xe9, 0x95, 0xc6, 0x6, 0x26, 0xce, 0xfe, 0xff, 0xff, 0x4, 0x0, 0x0, 0x0, 0x8, 0x0, 0x0, 0x0, 0xda, 0xab, 0xa4, 0x9f, 0xe5, 0xe8, 0x7f, 0x80, 0xe2, 0xfe, 0xff, 0xff, 0x4, 0x0, 0x0, 0x0, 0x30, 0x0, 0x0, 0x0, 0xf7, 0x8, 0x4, 0xe6, 0xcb, 0xed, 0xe9, 0x40, 0x62, 0xd6, 0x0, 0x2c, 0xc6, 0x18, 0xa0, 0xda, 0xca, 0x5c, 0x24, 0x33, 0xfb, 0xe5, 0xb2, 0xd9, 0xe2, 0xe, 0xd5, 0xc6, 0x3c, 0x7f, 0x18, 0xc4, 0xf8, 0x16, 0xe7, 0xb8, 0xab, 0x18, 0x7d, 0xaa, 0xe2, 0xdf, 0x7a, 0xd4, 0xc3, 0x34, 0xe5, 0xed, 0x1e, 0xff, 0xff, 0xff, 0x4, 0x0, 0x0, 0x0, 0x18, 0x0, 0x0, 0x0, 0xd6, 0xfd, 0xff, 0xff, 0xb2, 0xfd, 0xff, 0xff, 0x78, 0xfc, 0xff, 0xff, 0x9b, 0x2, 0x0, 0x0, 0xc5, 0x4, 0x0, 0x0, 0xe0, 0xfe, 0xff, 0xff, 0x42, 0xff, 0xff, 0xff, 0x4, 0x0, 0x0, 0x0, 0x10, 0x0, 0x0, 0x0, 0x1, 0x0, 0x0, 0x0, 0x1, 0x0, 0x0, 0x0, 0x40, 0x0, 0x0, 0x0, 0x8, 0x0, 0x0, 0x0, 0x5e, 0xff, 0xff, 0xff, 0x4, 0x0, 0x0, 0x0, 0x10, 0x0, 0x0, 0x0, 0x1, 0x0, 0x0, 0x0, 0x1, 0x0, 0x0, 0x0, 0x42, 0x0, 0x0, 0x0, 0x8, 0x0, 0x0, 0x0, 0x7a, 0xff, 0xff, 0xff, 0x4, 0x0, 0x0, 0x0, 0xc, 0x0, 0x0, 0x0, 0x1, 0x0, 0x0, 0x0, 0x40, 0x0, 0x0, 0x0, 0x8, 0x0, 0x0, 0x0, 0x92, 0xff, 0xff, 0xff, 0x4, 0x0, 0x0, 0x0, 0x10, 0x0, 0x0, 0x0, 0x1, 0x0, 0x0, 0x0, 0x1, 0x0, 0x0, 0x0, 0x82, 0x0, 0x0, 0x0, 0x8, 0x0, 0x0, 0x0, 0xae, 0xff, 0xff, 0xff, 0x4, 0x0, 0x0, 0x0, 0x10, 0x0, 0x0, 0x0, 0x1, 0x0, 0x0, 0x0, 0x1, 0x0, 0x0, 0x0, 0x80, 0x0, 0x0, 0x0, 0x8, 0x0, 0x0, 0x0, 0xca, 0xff, 0xff, 0xff, 0x4, 0x0, 0x0, 0x0, 0xc, 0x0, 0x0, 0x0, 0x1, 0x0, 0x0, 0x0, 0x80, 0x0, 0x0, 0x0, 0x8, 0x0, 0x0, 0x0, 0xe2, 0xff, 0xff, 0xff, 0x4, 0x0, 0x0, 0x0, 0x10, 0x0, 0x0, 0x0, 0x1, 0x0, 0x0, 0x0, 0x1, 0x0, 0x0, 0x0, 0x82, 0x0, 0x0, 0x0, 0x9, 0x0, 0x0, 0x0, 0x0, 0x0, 0x6, 0x0, 0x8, 0x0, 0x4, 0x0, 0x6, 0x0, 0x0, 0x0, 0x4, 0x0, 0x0, 0x0, 0x18, 0x0, 0x0, 0x0, 0x0, 0x0, 0x0, 0x0, 0x0, 0x0, 0x0, 0x0, 0x1, 0x0, 0x0, 0x0, 0x1, 0x0, 0x0, 0x0, 0x0, 0x0, 0x0, 0x0, 0x0, 0x0, 0x0, 0x0, 0xc8, 0xd5, 0xff, 0xff, 0xcc, 0xd5, 0xff, 0xff, 0xf, 0x0, 0x0, 0x0, 0x54, 0x4f, 0x43, 0x4f, 0x20, 0x43, 0x6f, 0x6e, 0x76, 0x65, 0x72, 0x74, 0x65, 0x64, 0x2e, 0x0, 0x1, 0x0, 0x0, 0x0, 0x14, 0x0, 0x0, 0x0, 0x0, 0x0, 0xe, 0x0, 0x18, 0x0, 0x14, 0x0, 0x10, 0x0, 0xc, 0x0, 0x8, 0x0, 0x4, 0x0, 0xe, 0x0, 0x0, 0x0, 0x14, 0x0, 0x0, 0x0, 0x1c, 0x0, 0x0, 0x0, 0xb8, 0x8, 0x0, 0x0, 0xbc, 0x8, 0x0, 0x0, 0xc0, 0x8, 0x0, 0x0, 0x4, 0x0, 0x0, 0x0, 0x6d, 0x61, 0x69, 0x6e, 0x0, 0x0, 0x0, 0x0, 0x2a, 0x0, 0x0, 0x0, 0x80, 0x8, 0x0, 0x0, 0x40, 0x8, 0x0, 0x0, 0x8, 0x8, 0x0, 0x0, 0xac, 0x7, 0x0, 0x0, 0x84, 0x7, 0x0, 0x0, 0x44, 0x7, 0x0, 0x0, 0x10, 0x7, 0x0, 0x0, 0xe8, 0x6, 0x0, 0x0, 0xc0, 0x6, 0x0, 0x0, 0x7c, 0x6, 0x0, 0x0, 0x38, 0x6, 0x0, 0x0, 0x10, 0x6, 0x0, 0x0, 0xe8, 0x5, 0x0, 0x0, 0xb4, 0x5, 0x0, 0x0, 0x80, 0x5, 0x0, 0x0, 0x58, 0x5, 0x0, 0x0, 0x30, 0x5, 0x0, 0x0, 0xdc, 0x4, 0x0, 0x0, 0x84, 0x4, 0x0, 0x0, 0x5c, 0x4, 0x0, 0x0, 0x34, 0x4, 0x0, 0x0, 0x0, 0x4, 0x0, 0x0, 0xd8, 0x3, 0x0, 0x0, 0x94, 0x3, 0x0, 0x0, 0x6c, 0x3, 0x0, 0x0, 0x38, 0x3, 0x0, 0x0, 0x0, 0x3, 0x0, 0x0, 0xcc, 0x2, 0x0, 0x0, 0xa4, 0x2, 0x0, 0x0, 0x60, 0x2, 0x0, 0x0, 0x38, 0x2, 0x0, 0x0, 0x0, 0x2, 0x0, 0x0, 0xcc, 0x1, 0x0, 0x0, 0xa4, 0x1, 0x0, 0x0, 0x60, 0x1, 0x0, 0x0, 0x38, 0x1, 0x0, 0x0, 0x4, 0x1, 0x0, 0x0, 0xcc, 0x0, 0x0, 0x0, 0xa4, 0x0, 0x0, 0x0, 0x60, 0x0, 0x0, 0x0, 0x28, 0x0, 0x0, 0x0, 0x4, 0x0, 0x0, 0x0, 0xa2, 0xf8, 0xff, 0xff, 0xc, 0x0, 0x0, 0x0, 0x10, 0x0, 0x0, 0x0, 0x7, 0x0, 0x0, 0x0, 0x1, 0x0, 0x0, 0x0, 0x46, 0x0, 0x0, 0x0, 0x1, 0x0, 0x0, 0x0, 0x45, 0x0, 0x0, 0x0, 0x92, 0xf8, 0xff, 0xff, 0x14, 0x0, 0x0, 0x0, 0x0, 0x0, 0x0, 0x8, 0x10, 0x0, 0x0, 0x0, 0x14, 0x0, 0x0, 0x0, 0x6, 0x0, 0x0, 0x0, 0x4, 0xd7, 0xff, 0xff, 0x1, 0x0, 0x0, 0x0, 0x45, 0x0, 0x0, 0x0, 0x3, 0x0, 0x0, 0x0, 0x44, 0x0, 0x0, 0x0, 0xa, 0x0, 0x0, 0x0, 0x9, 0x0, 0x0, 0x0, 0xc6, 0xf8, 0xff, 0xff, 0x14, 0x0, 0x0, 0x0, 0x0, 0x0, 0x0, 0x5, 0x24, 0x0, 0x0, 0x0, 0x28, 0x0, 0x0, 0x0, 0x5, 0x0, 0x0, 0x0, 0xda, 0xfb, 0xff, 0xff, 0x1, 0x0, 0x0, 0x0, 0x40, 0x0, 0x0, 0x0, 0x1, 0x0, 0x0, 0x0, 0x40, 0x0, 0x0, 0x0, 0x0, 0x0, 0x0, 0x1, 0x1, 0x0, 0x0, 0x0, 0x44, 0x0, 0x0, 0x0, 0x1, 0x0, 0x0, 0x0, 0x43, 0x0, 0x0, 0x0, 0x36, 0xf9, 0xff, 0xff, 0xc, 0x0, 0x0, 0x0, 0x10, 0x0, 0x0, 0x0, 0x2, 0x0, 0x0, 0x0, 0x1, 0x0, 0x0, 0x0, 0x43, 0x0, 0x0, 0x0, 0x2, 0x0, 0x0, 0x0, 0x42, 0x0, 0x0, 0x0, 0x8, 0x0, 0x0, 0x0, 0x2a, 0xf9, 0xff, 0xff, 0x14, 0x0, 0x0, 0x0, 0x0, 0x0, 0x0, 0xb, 0x14, 0x0, 0x0, 0x0, 0x18, 0x0, 0x0, 0x0, 0x4, 0x0, 0x0, 0x0, 0x6, 0xfa, 0xff, 0xff, 0x0, 0x0, 0x0, 0x1, 0x1, 0x0, 0x0, 0x0, 0x42, 0x0, 0x0, 0x0, 0x2, 0x0, 0x0, 0x0, 0x41, 0x0, 0x0, 0x0, 0x37, 0x0, 0x0, 0x0, 0x5e, 0xf9, 0xff, 0xff, 0x14, 0x0, 0x0, 0x0, 0x0, 0x0, 0x0, 0xb, 0x10, 0x0, 0x0, 0x0, 0x14, 0x0, 0x0, 0x0, 0x4, 0x0, 0x0, 0x0, 0xd0, 0xd7, 0xff, 0xff, 0x1, 0x0, 0x0, 0x0, 0x41, 0x0, 0x0, 0x0, 0x2, 0x0, 0x0, 0x0, 0x40, 0x0, 0x0, 0x0, 0xb, 0x0, 0x0, 0x0, 0xbe, 0xf9, 0xff, 0xff, 0xc, 0x0, 0x0, 0x0, 0x10, 0x0, 0x0, 0x0, 0x2, 0x0, 0x0, 0x0, 0x1, 0x0, 0x0, 0x0, 0x40, 0x0, 0x0, 0x0, 0x2, 0x0, 0x0, 0x0, 0x3f, 0x0, 0x0, 0x0, 0x6, 0x0, 0x0, 0x0, 0xb2, 0xf9, 0xff, 0xff, 0x14, 0x0, 0x0, 0x0, 0x0, 0x0, 0x0, 0x1, 0x1c, 0x0, 0x0, 0x0, 0x20, 0x0, 0x0, 0x0, 0x3, 0x0, 0x0, 0x0, 0x2e, 0xfa, 0xff, 0xff, 0x1, 0x0, 0x0, 0x0, 0x1, 0x0, 0x0, 0x0, 0x0, 0x0, 0x0, 0x1, 0x1, 0x0, 0x0, 0x0, 0x3f, 0x0, 0x0, 0x0, 0x3, 0x0, 0x0, 0x0, 0x3e, 0x0, 0x0, 0x0, 0xc, 0x0, 0x0, 0x0, 0x16, 0x0, 0x0, 0x0, 0x22, 0xfa, 0xff, 0xff, 0xc, 0x0, 0x0, 0x0, 0x10, 0x0, 0x0, 0x0, 0x2, 0x0, 0x0, 0x0, 0x1, 0x0, 0x0, 0x0, 0x3e, 0x0, 0x0, 0x0, 0x2, 0x0, 0x0, 0x0, 0x3d, 0x0, 0x0, 0x0, 0x7, 0x0, 0x0, 0x0, 0x16, 0xfa, 0xff, 0xff, 0x14, 0x0, 0x0, 0x0, 0x0, 0x0, 0x0, 0x16, 0x10, 0x0, 0x0, 0x0, 0x14, 0x0, 0x0, 0x0, 0x1, 0x0, 0x0, 0x0, 0x88, 0xd8, 0xff, 0xff, 0x1, 0x0, 0x0, 0x0, 0x3d, 0x0, 0x0, 0x0, 0x2, 0x0, 0x0, 0x0, 0x3c, 0x0, 0x0, 0x0, 0x1, 0x0, 0x0, 0x0, 0x46, 0xfa, 0xff, 0xff, 0x14, 0x0, 0x0, 0x0, 0x0, 0x0, 0x0, 0xb, 0x14, 0x0, 0x0, 0x0, 0x18, 0x0, 0x0, 0x0, 0x4, 0x0, 0x0, 0x0, 0x22, 0xfb, 0xff, 0xff, 0x0, 0x0, 0x0, 0x1, 0x1, 0x0, 0x0, 0x0, 0x3c, 0x0, 0x0, 0x0, 0x2, 0x0, 0x0, 0x0, 0x3b, 0x0, 0x0, 0x0, 0xd, 0x0, 0x0, 0x0, 0xaa, 0xfa, 0xff, 0xff, 0xc, 0x0, 0x0, 0x0, 0x10, 0x0, 0x0, 0x0, 0x2, 0x0, 0x0, 0x0, 0x1, 0x0, 0x0, 0x0, 0x3b, 0x0, 0x0, 0x0, 0x2, 0x0, 0x0, 0x0, 0x3a, 0x0, 0x0, 0x0, 0x6, 0x0, 0x0, 0x0, 0x9e, 0xfa, 0xff, 0xff, 0x14, 0x0, 0x0, 0x0, 0x0, 0x0, 0x0, 0x1, 0x1c, 0x0, 0x0, 0x0, 0x20, 0x0, 0x0, 0x0, 0x3, 0x0, 0x0, 0x0, 0x1a, 0xfb, 0xff, 0xff, 0x1, 0x0, 0x0, 0x0, 0x1, 0x0, 0x0, 0x0, 0x0, 0x0, 0x0, 0x1, 0x1, 0x0, 0x0, 0x0, 0x3a, 0x0, 0x0, 0x0, 0x3, 0x0, 0x0, 0x0, 0x39, 0x0, 0x0, 0x0, 0xe, 0x0, 0x0, 0x0, 0x17, 0x0, 0x0, 0x0, 0xe, 0xfb, 0xff, 0xff, 0xc, 0x0, 0x0, 0x0, 0x10, 0x0, 0x0, 0x0, 0x2, 0x0, 0x0, 0x0, 0x1, 0x0, 0x0, 0x0, 0x39, 0x0, 0x0, 0x0, 0x2, 0x0, 0x0, 0x0, 0x38, 0x0, 0x0, 0x0, 0x7, 0x0, 0x0, 0x0, 0x2, 0xfb, 0xff, 0xff, 0x14, 0x0, 0x0, 0x0, 0x0, 0x0, 0x0, 0x16, 0x10, 0x0, 0x0, 0x0, 0x14, 0x0, 0x0, 0x0, 0x1, 0x0, 0x0, 0x0, 0x74, 0xd9, 0xff, 0xff, 0x1, 0x0, 0x0, 0x0, 0x38, 0x0, 0x0, 0x0, 0x2, 0x0, 0x0, 0x0, 0x37, 0x0, 0x0, 0x0, 0x1, 0x0, 0x0, 0x0, 0x32, 0xfb, 0xff, 0xff, 0x14, 0x0, 0x0, 0x0, 0x0, 0x0, 0x0, 0xb, 0x14, 0x0, 0x0, 0x0, 0x18, 0x0, 0x0, 0x0, 0x4, 0x0, 0x0, 0x0, 0xe, 0xfc, 0xff, 0xff, 0x0, 0x0, 0x0, 0x1, 0x1, 0x0, 0x0, 0x0, 0x37, 0x0, 0x0, 0x0, 0x2, 0x0, 0x0, 0x0, 0x36, 0x0, 0x0, 0x0, 0x30, 0x0, 0x0, 0x0, 0x66, 0xfb, 0xff, 0xff, 0x14, 0x0, 0x0, 0x0, 0x0, 0x0, 0x0, 0xb, 0x10, 0x0, 0x0, 0x0, 0x14, 0x0, 0x0, 0x0, 0x4, 0x0, 0x0, 0x0, 0xd8, 0xd9, 0xff, 0xff, 0x1, 0x0, 0x0, 0x0, 0x36, 0x0, 0x0, 0x0, 0x2, 0x0, 0x0, 0x0, 0x35, 0x0, 0x0, 0x0, 0xf, 0x0, 0x0, 0x0, 0xc6, 0xfb, 0xff, 0xff, 0xc, 0x0, 0x0, 0x0, 0x10, 0x0, 0x0, 0x0, 0x2, 0x0, 0x0, 0x0, 0x1, 0x0, 0x0, 0x0, 0x35, 0x0, 0x0, 0x0, 0x2, 0x0, 0x0, 0x0, 0x34, 0x0, 0x0, 0x0, 0x6, 0x0, 0x0, 0x0, 0xba, 0xfb, 0xff, 0xff, 0x14, 0x0, 0x0, 0x0, 0x0, 0x0, 0x0, 0x1, 0x1c, 0x0, 0x0, 0x0, 0x20, 0x0, 0x0, 0x0, 0x3, 0x0, 0x0, 0x0, 0x36, 0xfc, 0xff, 0xff, 0x1, 0x0, 0x0, 0x0, 0x1, 0x0, 0x0, 0x0, 0x0, 0x0, 0x0, 0x1, 0x1, 0x0, 0x0, 0x0, 0x34, 0x0, 0x0, 0x0, 0x3, 0x0, 0x0, 0x0, 0x33, 0x0, 0x0, 0x0, 0x10, 0x0, 0x0, 0x0, 0x18, 0x0, 0x0, 0x0, 0x2a, 0xfc, 0xff, 0xff, 0xc, 0x0, 0x0, 0x0, 0x10, 0x0, 0x0, 0x0, 0x2, 0x0, 0x0, 0x0, 0x1, 0x0, 0x0, 0x0, 0x33, 0x0, 0x0, 0x0, 0x2, 0x0, 0x0, 0x0, 0x32, 0x0, 0x0, 0x0, 0x7, 0x0, 0x0, 0x0, 0x1e, 0xfc, 0xff, 0xff, 0x14, 0x0, 0x0, 0x0, 0x0, 0x0, 0x0, 0x16, 0x10, 0x0, 0x0, 0x0, 0x14, 0x0, 0x0, 0x0, 0x1, 0x0, 0x0, 0x0, 0x90, 0xda, 0xff, 0xff, 0x1, 0x0, 0x0, 0x0, 0x32, 0x0, 0x0, 0x0, 0x2, 0x0, 0x0, 0x0, 0x31, 0x0, 0x0, 0x0, 0x1, 0x0, 0x0, 0x0, 0x7e, 0xfc, 0xff, 0xff, 0xc, 0x0, 0x0, 0x0, 0x10, 0x0, 0x0, 0x0, 0x2, 0x0, 0x0, 0x0, 0x1, 0x0, 0x0, 0x0, 0x31, 0x0, 0x0, 0x0, 0x2, 0x0, 0x0, 0x0, 0x2f, 0x0, 0x0, 0x0, 0x6, 0x0, 0x0, 0x0, 0xa2, 0xfc, 0xff, 0xff, 0xc, 0x0, 0x0, 0x0, 0x10, 0x0, 0x0, 0x0, 0x2, 0x0, 0x0, 0x0, 0x1, 0x0, 0x0, 0x0, 0x30, 0x0, 0x0, 0x0, 0x2, 0x0, 0x0, 0x0, 0x2e, 0x0, 0x0, 0x0, 0x6, 0x0, 0x0, 0x0, 0x96, 0xfc, 0xff, 0xff, 0x24, 0x0, 0x0, 0x0, 0x0, 0x0, 0x0, 0x5, 0x38, 0x0, 0x0, 0x0, 0x3c, 0x0, 0x0, 0x0, 0x5, 0x0, 0x0, 0x0, 0x10, 0x0, 0x1c, 0x0, 0x1b, 0x0, 0x14, 0x0, 0x10, 0x0, 0xc, 0x0, 0x8, 0x0, 0x7, 0x0, 0x10, 0x0, 0x0, 0x0, 0x0, 0x0, 0x0, 0x1, 0x1, 0x0, 0x0, 0x0, 0x2, 0x0, 0x0, 0x0, 0x1, 0x0, 0x0, 0x0, 0x2, 0x0, 0x0, 0x0, 0x0, 0x0, 0x0, 0x1, 0x1, 0x0, 0x0, 0x0, 0x2f, 0x0, 0x0, 0x0, 0x1, 0x0, 0x0, 0x0, 0x2d, 0x0, 0x0, 0x0, 0xea, 0xfc, 0xff, 0xff, 0x24, 0x0, 0x0, 0x0, 0x0, 0x0, 0x0, 0x5, 0x34, 0x0, 0x0, 0x0, 0x38, 0x0, 0x0, 0x0, 0x5, 0x0, 0x0, 0x0, 0x0, 0x0, 0xe, 0x0, 0x18, 0x0, 0x17, 0x0, 0x10, 0x0, 0xc, 0x0, 0x8, 0x0, 0x4, 0x0, 0xe, 0x0, 0x0, 0x0, 0x1, 0x0, 0x0, 0x0, 0x2, 0x0, 0x0, 0x0, 0x1, 0x0, 0x0, 0x0, 0x2, 0x0, 0x0, 0x0, 0x0, 0x0, 0x0, 0x1, 0x1, 0x0, 0x0, 0x0, 0x2e, 0x0, 0x0, 0x0, 0x1, 0x0, 0x0, 0x0, 0x2c, 0x0, 0x0, 0x0, 0x6a, 0xfd, 0xff, 0xff, 0xc, 0x0, 0x0, 0x0, 0x10, 0x0, 0x0, 0x0, 0x2, 0x0, 0x0, 0x0, 0x1, 0x0, 0x0, 0x0, 0x2d, 0x0, 0x0, 0x0, 0x2, 0x0, 0x0, 0x0, 0x2b, 0x0, 0x0, 0x0, 0x4, 0x0, 0x0, 0x0, 0x8e, 0xfd, 0xff, 0xff, 0xc, 0x0, 0x0, 0x0, 0x10, 0x0, 0x0, 0x0, 0x2, 0x0, 0x0, 0x0, 0x1, 0x0, 0x0, 0x0, 0x2c, 0x0, 0x0, 0x0, 0x2, 0x0, 0x0, 0x0, 0x2a, 0x0, 0x0, 0x0, 0x4, 0x0, 0x0, 0x0, 0x82, 0xfd, 0xff, 0xff, 0x14, 0x0, 0x0, 0x0, 0x0, 0x0, 0x0, 0xb, 0x10, 0x0, 0x0, 0x0, 0x14, 0x0, 0x0, 0x0, 0x4, 0x0, 0x0, 0x0, 0xf4, 0xdb, 0xff, 0xff, 0x1, 0x0, 0x0, 0x0, 0x2b, 0x0, 0x0, 0x0, 0x2, 0x0, 0x0, 0x0, 0x29, 0x0, 0x0, 0x0, 0x11, 0x0, 0x0, 0x0, 0xb2, 0xfd, 0xff, 0xff, 0x14, 0x0, 0x0, 0x0, 0x0, 0x0, 0x0, 0xb, 0x10, 0x0, 0x0, 0x0, 0x14, 0x0, 0x0, 0x0, 0x4, 0x0, 0x0, 0x0, 0x24, 0xdc, 0xff, 0xff, 0x1, 0x0, 0x0, 0x0, 0x2a, 0x0, 0x0, 0x0, 0x2, 0x0, 0x0, 0x0, 0x28, 0x0, 0x0, 0x0, 0x12, 0x0, 0x0, 0x0, 0x12, 0xfe, 0xff, 0xff, 0xc, 0x0, 0x0, 0x0, 0x10, 0x0, 0x0, 0x0, 0x2, 0x0, 0x0, 0x0, 0x1, 0x0, 0x0, 0x0, 0x29, 0x0, 0x0, 0x0, 0x2, 0x0, 0x0, 0x0, 0x27, 0x0, 0x0, 0x0, 0x3, 0x0, 0x0, 0x0, 0x36, 0xfe, 0xff, 0xff, 0xc, 0x0, 0x0, 0x0, 0x10, 0x0, 0x0, 0x0, 0x2, 0x0, 0x0, 0x0, 0x1, 0x0, 0x0, 0x0, 0x28, 0x0, 0x0, 0x0, 0x2, 0x0, 0x0, 0x0, 0x26, 0x0, 0x0, 0x0, 0x3, 0x0, 0x0, 0x0, 0x2a, 0xfe, 0xff, 0xff, 0x14, 0x0, 0x0, 0x0, 0x0, 0x0, 0x0, 0x1, 0x1c, 0x0, 0x0, 0x0, 0x20, 0x0, 0x0, 0x0, 0x3, 0x0, 0x0, 0x0, 0xa6, 0xfe, 0xff, 0xff, 0x1, 0x0, 0x0, 0x0, 0x1, 0x0, 0x0, 0x0, 0x0, 0x0, 0x0, 0x1, 0x1, 0x0, 0x0, 0x0, 0x27, 0x0, 0x0, 0x0, 0x3, 0x0, 0x0, 0x0, 0x25, 0x0, 0x0, 0x0, 0x13, 0x0, 0x0, 0x0, 0x19, 0x0, 0x0, 0x0, 0x6a, 0xfe, 0xff, 0xff, 0x14, 0x0, 0x0, 0x0, 0x0, 0x0, 0x0, 0x1, 0x1c, 0x0, 0x0, 0x0, 0x20, 0x0, 0x0, 0x0, 0x3, 0x0, 0x0, 0x0, 0xe6, 0xfe, 0xff, 0xff, 0x1, 0x0, 0x0, 0x0, 0x1, 0x0, 0x0, 0x0, 0x0, 0x0, 0x0, 0x1, 0x1, 0x0, 0x0, 0x0, 0x26, 0x0, 0x0, 0x0, 0x3, 0x0, 0x0, 0x0, 0x24, 0x0, 0x0, 0x0, 0x14, 0x0, 0x0, 0x0, 0x1a, 0x0, 0x0, 0x0, 0xda, 0xfe, 0xff, 0xff, 0xc, 0x0, 0x0, 0x0, 0x10, 0x0, 0x0, 0x0, 0x2, 0x0, 0x0, 0x0, 0x1, 0x0, 0x0, 0x0, 0x25, 0x0, 0x0, 0x0, 0x2, 0x0, 0x0, 0x0, 0x23, 0x0, 0x0, 0x0, 0x5, 0x0, 0x0, 0x0, 0xfe, 0xfe, 0xff, 0xff, 0xc, 0x0, 0x0, 0x0, 0x10, 0x0, 0x0, 0x0, 0x2, 0x0, 0x0, 0x0, 0x1, 0x0, 0x0, 0x0, 0x24, 0x0, 0x0, 0x0, 0x2, 0x0, 0x0, 0x0, 0x22, 0x0, 0x0, 0x0, 0x4, 0x0, 0x0, 0x0, 0xf2, 0xfe, 0xff, 0xff, 0x14, 0x0, 0x0, 0x0, 0x0, 0x0, 0x0, 0x16, 0x10, 0x0, 0x0, 0x0, 0x14, 0x0, 0x0, 0x0, 0x1, 0x0, 0x0, 0x0, 0x64, 0xdd, 0xff, 0xff, 0x1, 0x0, 0x0, 0x0, 0x23, 0x0, 0x0, 0x0, 0x2, 0x0, 0x0, 0x0, 0x22, 0x0, 0x0, 0x0, 0x1, 0x0, 0x0, 0x0, 0x22, 0xff, 0xff, 0xff, 0x1c, 0x0, 0x0, 0x0, 0x0, 0x0, 0x0, 0xb, 0x1c, 0x0, 0x0, 0x0, 0x20, 0x0, 0x0, 0x0, 0x4, 0x0, 0x0, 0x0, 0x0, 0x0, 0x6, 0x0, 0x8, 0x0, 0x7, 0x0, 0x6, 0x0, 0x0, 0x0, 0x0, 0x0, 0x0, 0x1, 0x1, 0x0, 0x0, 0x0, 0x22, 0x0, 0x0, 0x0, 0x2, 0x0, 0x0, 0x0, 0x21, 0x0, 0x0, 0x0, 0x15, 0x0, 0x0, 0x0, 0x8e, 0xff, 0xff, 0xff, 0xc, 0x0, 0x0, 0x0, 0x10, 0x0, 0x0, 0x0, 0x2, 0x0, 0x0, 0x0, 0x1, 0x0, 0x0, 0x0, 0x21, 0x0, 0x0, 0x0, 0x2, 0x0, 0x0, 0x0, 0x20, 0x0, 0x0, 0x0, 0x3, 0x0, 0x0, 0x0, 0x82, 0xff, 0xff, 0xff, 0x20, 0x0, 0x0, 0x0, 0x0, 0x0, 0x0, 0x1, 0x28, 0x0, 0x0, 0x0, 0x2c, 0x0, 0x0, 0x0, 0x3, 0x0, 0x0, 0x0, 0x0, 0x0, 0xa, 0x0, 0x10, 0x0, 0xf, 0x0, 0x8, 0x0, 0x4, 0x0, 0xa, 0x0, 0x0, 0x0, 0x1, 0x0, 0x0, 0x0, 0x1, 0x0, 0x0, 0x0, 0x0, 0x0, 0x0, 0x1, 0x1, 0x0, 0x0, 0x0, 0x20, 0x0, 0x0, 0x0, 0x3, 0x0, 0x0, 0x0, 0x1f, 0x0, 0x0, 0x0, 0x1c, 0x0, 0x0, 0x0, 0x1b, 0x0, 0x0, 0x0, 0x0, 0x0, 0xa, 0x0, 0x10, 0x0, 0xc, 0x0, 0x8, 0x0, 0x4, 0x0, 0xa, 0x0, 0x0, 0x0, 0xc, 0x0, 0x0, 0x0, 0x10, 0x0, 0x0, 0x0, 0x2, 0x0, 0x0, 0x0, 0x1, 0x0, 0x0, 0x0, 0x1f, 0x0, 0x0, 0x0, 0x2, 0x0, 0x0, 0x0, 0x1e, 0x0, 0x0, 0x0, 0x2, 0x0, 0x0, 0x0, 0x0, 0x0, 0xe, 0x0, 0x18, 0x0, 0x14, 0x0, 0x10, 0x0, 0xc, 0x0, 0xb, 0x0, 0x4, 0x0, 0xe, 0x0, 0x0, 0x0, 0x14, 0x0, 0x0, 0x0, 0x0, 0x0, 0x0, 0x16, 0x10, 0x0, 0x0, 0x0, 0x14, 0x0, 0x0, 0x0, 0x1, 0x0, 0x0, 0x0, 0x80, 0xde, 0xff, 0xff, 0x1, 0x0, 0x0, 0x0, 0x1e, 0x0, 0x0, 0x0, 0x2, 0x0, 0x0, 0x0, 0x1d, 0x0, 0x0, 0x0, 0x1, 0x0, 0x0, 0x0, 0x0, 0x0, 0xa, 0x0, 0xc, 0x0, 0x0, 0x0, 0x8, 0x0, 0x4, 0x0, 0xa, 0x0, 0x0, 0x0, 0x8, 0x0, 0x0, 0x0, 0xc, 0x0, 0x0, 0x0, 0x1, 0x0, 0x0, 0x0, 0x1d, 0x0, 0x0, 0x0, 0x1, 0x0, 0x0, 0x0, 0x0, 0x0, 0x0, 0x0, 0x1, 0x0, 0x0, 0x0, 0x46, 0x0, 0x0, 0x0, 0x1, 0x0, 0x0, 0x0, 0x0, 0x0, 0x0, 0x0, 0x47, 0x0, 0x0, 0x0, 0x14, 0x21, 0x0, 0x0, 0xb8, 0x20, 0x0, 0x0, 0x60, 0x20, 0x0, 0x0, 0x20, 0x20, 0x0, 0x0, 0xe0, 0x1f, 0x0, 0x0, 0xa0, 0x1f, 0x0, 0x0, 0x60, 0x1f, 0x0, 0x0, 0x20, 0x1f, 0x0, 0x0, 0xe0, 0x1e, 0x0, 0x0, 0x74, 0x1e, 0x0, 0x0, 0xc, 0x1e, 0x0, 0x0, 0xa0, 0x1d, 0x0, 0x0, 0xdc, 0x1c, 0x0, 0x0, 0x70, 0x1c, 0x0, 0x0, 0xac, 0x1b, 0x0, 0x0, 0x40, 0x1b, 0x0, 0x0, 0x7c, 0x1a, 0x0, 0x0, 0x10, 0x1a, 0x0, 0x0, 0xa4, 0x19, 0x0, 0x0, 0xe0, 0x18, 0x0, 0x0, 0x1c, 0x18, 0x0, 0x0, 0xb0, 0x17, 0x0, 0x0, 0xfc, 0x16, 0x0, 0x0, 0x48, 0x16, 0x0, 0x0, 0x94, 0x15, 0x0, 0x0, 0xe0, 0x14, 0x0, 0x0, 0x2c, 0x14, 0x0, 0x0, 0x78, 0x13, 0x0, 0x0, 0xb4, 0x12, 0x0, 0x0, 0x50, 0x12, 0x0, 0x0, 0xe4, 0x11, 0x0, 0x0, 0x68, 0x11, 0x0, 0x0, 0xf4, 0x10, 0x0, 0x0, 0x80, 0x10, 0x0, 0x0, 0x14, 0x10, 0x0, 0x0, 0xa8, 0xf, 0x0, 0x0, 0x24, 0xf, 0x0, 0x0, 0xa8, 0xe, 0x0, 0x0, 0x34, 0xe, 0x0, 0x0, 0xc0, 0xd, 0x0, 0x0, 0x44, 0xd, 0x0, 0x0, 0xd0, 0xc, 0x0, 0x0, 0x64, 0xc, 0x0, 0x0, 0x0, 0xc, 0x0, 0x0, 0x7c, 0xb, 0x0, 0x0, 0xf8, 0xa, 0x0, 0x0, 0x84, 0xa, 0x0, 0x0, 0x18, 0xa, 0x0, 0x0, 0x9c, 0x9, 0x0, 0x0, 0x20, 0x9, 0x0, 0x0, 0xb4, 0x8, 0x0, 0x0, 0x38, 0x8, 0x0, 0x0, 0xc4, 0x7, 0x0, 0x0, 0x50, 0x7, 0x0, 0x0, 0xec, 0x6, 0x0, 0x0, 0x80, 0x6, 0x0, 0x0, 0x14, 0x6, 0x0, 0x0, 0x98, 0x5, 0x0, 0x0, 0x24, 0x5, 0x0, 0x0, 0xb0, 0x4, 0x0, 0x0, 0x44, 0x4, 0x0, 0x0, 0xd8, 0x3, 0x0, 0x0, 0x5c, 0x3, 0x0, 0x0, 0xe8, 0x2, 0x0, 0x0, 0x6c, 0x2, 0x0, 0x0, 0x0, 0x2, 0x0, 0x0, 0x94, 0x1, 0x0, 0x0, 0x10, 0x1, 0x0, 0x0, 0x9c, 0x0, 0x0, 0x0, 0x40, 0x0, 0x0, 0x0, 0x4, 0x0, 0x0, 0x0, 0x1e, 0xe0, 0xff, 0xff, 0x0, 0x0, 0x0, 0x1, 0x10, 0x0, 0x0, 0x0, 0x10, 0x0, 0x0, 0x0, 0x47, 0x0, 0x0, 0x0, 0x18, 0x0, 0x0, 0x0, 0x8, 0xe0, 0xff, 0xff, 0x8, 0x0, 0x0, 0x0, 0x49, 0x64, 0x65, 0x6e, 0x74, 0x69, 0x74, 0x79, 0x0, 0x0, 0x0, 0x0, 0x2, 0x0, 0x0, 0x0, 0x1, 0x0, 0x0, 0x0, 0x6, 0x0, 0x0, 0x0, 0xae, 0xe0, 0xff, 0xff, 0x0, 0x0, 0x0, 0x1, 0x14, 0x0, 0x0, 0x0, 0x30, 0x0, 0x0, 0x0, 0x46, 0x0, 0x0, 0x0, 0x0, 0x0, 0x0, 0x9, 0x34, 0x0, 0x0, 0x0, 0xbc, 0xe2, 0xff, 0xff, 0x8, 0x0, 0x0, 0x0, 0x10, 0x0, 0x0, 0x0, 0x1, 0x0, 0x0, 0x0, 0xfd, 0xff, 0xff, 0xff, 0xff, 0xff, 0xff, 0xff, 0x1, 0x0, 0x0, 0x0, 0x1, 0xa9, 0x9f, 0x3d, 0x9, 0x0, 0x0, 0x0, 0x49, 0x64, 0x65, 0x6e, 0x74, 0x69, 0x74, 0x79, 0x31, 0x0, 0x0, 0x0, 0x2, 0x0, 0x0, 0x0, 0x1, 0x0, 0x0, 0x0, 0x6, 0x0, 0x0, 0x0, 0x6, 0xe1, 0xff, 0xff, 0x0, 0x0, 0x0, 0x1, 0x14, 0x0, 0x0, 0x0, 0x30, 0x0, 0x0, 0x0, 0x45, 0x0, 0x0, 0x0, 0x0, 0x0, 0x0, 0x9, 0x44, 0x0, 0x0, 0x0, 0x14, 0xe3, 0xff, 0xff, 0x8, 0x0, 0x0, 0x0, 0x10, 0x0, 0x0, 0x0, 0x1, 0x0, 0x0, 0x0, 0x80, 0xff, 0xff, 0xff, 0xff, 0xff, 0xff, 0xff, 0x1, 0x0, 0x0, 0x0, 0x53, 0xa1, 0xd1, 0x3d, 0x1b, 0x0, 0x0, 0x0, 0x6d, 0x61, 0x78, 0x5f, 0x70, 0x6f, 0x6f, 0x6c, 0x69, 0x6e, 0x67, 0x31, 0x64, 0x5f, 0x32, 0x5f, 0x31, 0x2f, 0x4d, 0x61, 0x78, 0x50, 0x6f, 0x6f, 0x6c, 0x31, 0x64, 0x0, 0x4, 0x0, 0x0, 0x0, 0x1, 0x0, 0x0, 0x0, 0x1, 0x0, 0x0, 0x0, 0x1, 0x0, 0x0, 0x0, 0x8, 0x0, 0x0, 0x0, 0x76, 0xe1, 0xff, 0xff, 0x0, 0x0, 0x0, 0x1, 0x14, 0x0, 0x0, 0x0, 0x34, 0x0, 0x0, 0x0, 0x44, 0x0, 0x0, 0x0, 0x0, 0x0, 0x0, 0x9, 0x54, 0x0, 0x0, 0x0, 0x84, 0xe3, 0xff, 0xff, 0x8, 0x0, 0x0, 0x0, 0x14, 0x0, 0x0, 0x0, 0x1, 0x0, 0x0, 0x0, 0x80, 0xff, 0xff, 0xff, 0xff, 0xff, 0xff, 0xff, 0x0, 0x0, 0x0, 0x0, 0x1, 0x0, 0x0, 0x0, 0x53, 0xa1, 0xd1, 0x3d, 0x26, 0x0, 0x0, 0x0, 0x6d, 0x61, 0x78, 0x5f, 0x70, 0x6f, 0x6f, 0x6c, 0x69, 0x6e, 0x67, 0x31, 0x64, 0x5f, 0x32, 0x5f, 0x31, 0x2f, 0x4d, 0x61, 0x78, 0x50, 0x6f, 0x6f, 0x6c, 0x31, 0x64, 0x2f, 0x45, 0x78, 0x70, 0x61, 0x6e, 0x64, 0x44, 0x69, 0x6d, 0x73, 0x0, 0x0, 0x4, 0x0, 0x0, 0x0, 0x1, 0x0, 0x0, 0x0, 0x1, 0x0, 0x0, 0x0, 0x40, 0x0, 0x0, 0x0, 0x8, 0x0, 0x0, 0x0, 0xf6, 0xe1, 0xff, 0xff, 0x0, 0x0, 0x0, 0x1, 0x14, 0x0, 0x0, 0x0, 0x34, 0x0, 0x0, 0x0, 0x43, 0x0, 0x0, 0x0, 0x0, 0x0, 0x0, 0x9, 0x40, 0x0, 0x0, 0x0, 0x4, 0xe4, 0xff, 0xff, 0x8, 0x0, 0x0, 0x0, 0x14, 0x0, 0x0, 0x0, 0x1, 0x0, 0x0, 0x0, 0x80, 0xff, 0xff, 0xff, 0xff, 0xff, 0xff, 0xff, 0x0, 0x0, 0x0, 0x0, 0x1, 0x0, 0x0, 0x0, 0x53, 0xa1, 0xd1, 0x3d, 0x13, 0x0, 0x0, 0x0, 0x61, 0x63, 0x74, 0x69, 0x76, 0x61, 0x74, 0x69, 0x6f, 0x6e, 0x5f, 0x34, 0x5f, 0x31, 0x2f, 0x52, 0x65, 0x6c, 0x75, 0x0, 0x3, 0x0, 0x0, 0x0, 0x1, 0x0, 0x0, 0x0, 0x40, 0x0, 0x0, 0x0, 0x8, 0x0, 0x0, 0x0, 0x5e, 0xe2, 0xff, 0xff, 0x0, 0x0, 0x0, 0x1, 0x14, 0x0, 0x0, 0x0, 0x34, 0x0, 0x0, 0x0, 0x42, 0x0, 0x0, 0x0, 0x0, 0x0, 0x0, 0x9, 0x40, 0x0, 0x0, 0x0, 0x6c, 0xe4, 0xff, 0xff, 0x8, 0x0, 0x0, 0x0, 0x14, 0x0, 0x0, 0x0, 0x1, 0x0, 0x0, 0x0, 0x1, 0x0, 0x0, 0x0, 0x0, 0x0, 0x0, 0x0, 0x0, 0x0, 0x0, 0x0, 0x1, 0x0, 0x0, 0x0, 0x6e, 0xf6, 0x54, 0x3e, 0x10, 0x0, 0x0, 0x0, 0x63, 0x6f, 0x6e, 0x76, 0x5f, 0x72, 0x65, 0x66, 0x5f, 0x31, 0x5f, 0x32, 0x2f, 0x61, 0x64, 0x64, 0x0, 0x0, 0x0, 0x0, 0x3, 0x0, 0x0, 0x0, 0x1, 0x0, 0x0, 0x0, 0x40, 0x0, 0x0, 0x0, 0x8, 0x0, 0x0, 0x0, 0xc6, 0xe2, 0xff, 0xff, 0x0, 0x0, 0x0, 0x1, 0x14, 0x0, 0x0, 0x0, 0x34, 0x0, 0x0, 0x0, 0x41, 0x0, 0x0, 0x0, 0x0, 0x0, 0x0, 0x9, 0x50, 0x0, 0x0, 0x0, 0xd4, 0xe4, 0xff, 0xff, 0x8, 0x0, 0x0, 0x0, 0x14, 0x0, 0x0, 0x0, 0x1, 0x0, 0x0, 0x0, 0x25, 0x0, 0x0, 0x0, 0x0, 0x0, 0x0, 0x0, 0x0, 0x0, 0x0, 0x0, 0x1, 0x0, 0x0, 0x0, 0x50, 0x5a, 0x28, 0x3e, 0x20, 0x0, 0x0, 0x0, 0x63, 0x6f, 0x6e, 0x76, 0x5f, 0x72, 0x65, 0x66, 0x5f, 0x31, 0x5f, 0x32, 0x2f, 0x63, 0x6f, 0x6e, 0x76, 0x6f, 0x6c, 0x75, 0x74, 0x69, 0x6f, 0x6e, 0x2f, 0x53, 0x71, 0x75, 0x65, 0x65, 0x7a, 0x65, 0x0, 0x0, 0x0, 0x0, 0x3, 0x0, 0x0, 0x0, 0x1, 0x0, 0x0, 0x0, 0x40, 0x0, 0x0, 0x0, 0x8, 0x0, 0x0, 0x0, 0x3e, 0xe3, 0xff, 0xff, 0x0, 0x0, 0x0, 0x1, 0x14, 0x0, 0x0, 0x0, 0x30, 0x0, 0x0, 0x0, 0x40, 0x0, 0x0, 0x0, 0x0, 0x0, 0x0, 0x9, 0x44, 0x0, 0x0, 0x0, 0x4c, 0xe5, 0xff, 0xff, 0x8, 0x0, 0x0, 0x0, 0x10, 0x0, 0x0, 0x0, 0x1, 0x0, 0x0, 0x0, 0x25, 0x0, 0x0, 0x0, 0x0, 0x0, 0x0, 0x0, 0x1, 0x0, 0x0, 0x0, 0x50, 0x5a, 0x28, 0x3e, 0x18, 0x0, 0x0, 0x0, 0x63, 0x6f, 0x6e, 0x76, 0x5f, 0x72, 0x65, 0x66, 0x5f, 0x31, 0x5f, 0x32, 0x2f, 0x63, 0x6f, 0x6e, 0x76, 0x6f, 0x6c, 0x75, 0x74, 0x69, 0x6f, 0x6e, 0x0, 0x0, 0x0, 0x0, 0x4, 0x0, 0x0, 0x0, 0x1, 0x0, 0x0, 0x0, 0x1, 0x0, 0x0, 0x0, 0x40, 0x0, 0x0, 0x0, 0x8, 0x0, 0x0, 0x0, 0xae, 0xe3, 0xff, 0xff, 0x0, 0x0, 0x0, 0x1, 0x14, 0x0, 0x0, 0x0, 0x30, 0x0, 0x0, 0x0, 0x3f, 0x0, 0x0, 0x0, 0x0, 0x0, 0x0, 0x9, 0x4c, 0x0, 0x0, 0x0, 0xbc, 0xe5, 0xff, 0xff, 0x8, 0x0, 0x0, 0x0, 0x10, 0x0, 0x0, 0x0, 0x1, 0x0, 0x0, 0x0, 0x80, 0xff, 0xff, 0xff, 0xff, 0xff, 0xff, 0xff, 0x1, 0x0, 0x0, 0x0, 0x14, 0xa2, 0x97, 0x3d, 0x23, 0x0, 0x0, 0x0, 0x63, 0x6f, 0x6e, 0x76, 0x5f, 0x72, 0x65, 0x66, 0x5f, 0x31, 0x5f, 0x32, 0x2f, 0x63, 0x6f, 0x6e, 0x76, 0x6f, 0x6c, 0x75, 0x74, 0x69, 0x6f, 0x6e, 0x2f, 0x45, 0x78, 0x70, 0x61, 0x6e, 0x64, 0x44, 0x69, 0x6d, 0x73, 0x0, 0x4, 0x0, 0x0, 0x0, 0x1, 0x0, 0x0, 0x0, 0x1, 0x0, 0x0, 0x0, 0x42, 0x0, 0x0, 0x0, 0x8, 0x0, 0x0, 0x0, 0x26, 0xe4, 0xff, 0xff, 0x0, 0x0, 0x0, 0x1, 0x14, 0x0, 0x0, 0x0, 0x30, 0x0, 0x0, 0x0, 0x3e, 0x0, 0x0, 0x0, 0x0, 0x0, 0x0, 0x9, 0x40, 0x0, 0x0, 0x0, 0x34, 0xe6, 0xff, 0xff, 0x8, 0x0, 0x0, 0x0, 0x10, 0x0, 0x0, 0x0, 0x1, 0x0, 0x0, 0x0, 0x80, 0xff, 0xff, 0xff, 0xff, 0xff, 0xff, 0xff, 0x1, 0x0, 0x0, 0x0, 0x14, 0xa2, 0x97, 0x3d, 0x16, 0x0, 0x0, 0x0, 0x7a, 0x65, 0x72, 0x6f, 0x5f, 0x70, 0x61, 0x64, 0x64, 0x69, 0x6e, 0x67, 0x31, 0x64, 0x5f, 0x34, 0x5f, 0x31, 0x2f, 0x50, 0x61, 0x64, 0x0, 0x0, 0x3, 0x0, 0x0, 0x0, 0x1, 0x0, 0x0, 0x0, 0x42, 0x0, 0x0, 0x0, 0x8, 0x0, 0x0, 0x0, 0x8e, 0xe4, 0xff, 0xff, 0x0, 0x0, 0x0, 0x1, 0x14, 0x0, 0x0, 0x0, 0x34, 0x0, 0x0, 0x0, 0x3d, 0x0, 0x0, 0x0, 0x0, 0x0, 0x0, 0x9, 0x40, 0x0, 0x0, 0x0, 0x9c, 0xe6, 0xff, 0xff, 0x8, 0x0, 0x0, 0x0, 0x14, 0x0, 0x0, 0x0, 0x1, 0x0, 0x0, 0x0, 0x80, 0xff, 0xff, 0xff, 0xff, 0xff, 0xff, 0xff, 0x0, 0x0, 0x0, 0x0, 0x1, 0x0, 0x0, 0x0, 0x14, 0xa2, 0x97, 0x3d, 0x13, 0x0, 0x0, 0x0, 0x61, 0x63, 0x74, 0x69, 0x76, 0x61, 0x74, 0x69, 0x6f, 0x6e, 0x5f, 0x33, 0x5f, 0x31, 0x2f, 0x52, 0x65, 0x6c, 0x75, 0x0, 0x3, 0x0, 0x0, 0x0, 0x1, 0x0, 0x0, 0x0, 0x40, 0x0, 0x0, 0x0, 0x8, 0x0, 0x0, 0x0, 0xf6, 0xe4, 0xff, 0xff, 0x0, 0x0, 0x0, 0x1, 0x14, 0x0, 0x0, 0x0, 0x30, 0x0, 0x0, 0x0, 0x3c, 0x0, 0x0, 0x0, 0x0, 0x0, 0x0, 0x9, 0x48, 0x0, 0x0, 0x0, 0x4, 0xe7, 0xff, 0xff, 0x8, 0x0, 0x0, 0x0, 0x10, 0x0, 0x0, 0x0, 0x1, 0x0, 0x0, 0x0, 0x22, 0x0, 0x0, 0x0, 0x0, 0x0, 0x0, 0x0, 0x1, 0x0, 0x0, 0x0, 0x6c, 0x46, 0x4b, 0x3e, 0x1e, 0x0, 0x0, 0x0, 0x63, 0x6f, 0x6e, 0x76, 0x31, 0x64, 0x5f, 0x32, 0x5f, 0x31, 0x2f, 0x63, 0x6f, 0x6e, 0x76, 0x6f, 0x6c, 0x75, 0x74, 0x69, 0x6f, 0x6e, 0x2f, 0x53, 0x71, 0x75, 0x65, 0x65, 0x7a, 0x65, 0x0, 0x0, 0x3, 0x0, 0x0, 0x0, 0x1, 0x0, 0x0, 0x0, 0x40, 0x0, 0x0, 0x0, 0x8, 0x0, 0x0, 0x0, 0x66, 0xe5, 0xff, 0xff, 0x0, 0x0, 0x0, 0x1, 0x14, 0x0, 0x0, 0x0, 0x34, 0x0, 0x0, 0x0, 0x3b, 0x0, 0x0, 0x0, 0x0, 0x0, 0x0, 0x9, 0x44, 0x0, 0x0, 0x0, 0x74, 0xe7, 0xff, 0xff, 0x8, 0x0, 0x0, 0x0, 0x14, 0x0, 0x0, 0x0, 0x1, 0x0, 0x0, 0x0, 0x22, 0x0, 0x0, 0x0, 0x0, 0x0, 0x0, 0x0, 0x0, 0x0, 0x0, 0x0, 0x1, 0x0, 0x0, 0x0, 0x6c, 0x46, 0x4b, 0x3e, 0x16, 0x0, 0x0, 0x0, 0x63, 0x6f, 0x6e, 0x76, 0x31, 0x64, 0x5f, 0x32, 0x5f, 0x31, 0x2f, 0x63, 0x6f, 0x6e, 0x76, 0x6f, 0x6c, 0x75, 0x74, 0x69, 0x6f, 0x6e, 0x0, 0x0, 0x4, 0x0, 0x0, 0x0, 0x1, 0x0, 0x0, 0x0, 0x1, 0x0, 0x0, 0x0, 0x40, 0x0, 0x0, 0x0, 0x8, 0x0, 0x0, 0x0, 0xd6, 0xe5, 0xff, 0xff, 0x0, 0x0, 0x0, 0x1, 0x14, 0x0, 0x0, 0x0, 0x30, 0x0, 0x0, 0x0, 0x3a, 0x0, 0x0, 0x0, 0x0, 0x0, 0x0, 0x9, 0x4c, 0x0, 0x0, 0x0, 0xe4, 0xe7, 0xff, 0xff, 0x8, 0x0, 0x0, 0x0, 0x10, 0x0, 0x0, 0x0, 0x1, 0x0, 0x0, 0x0, 0x80, 0xff, 0xff, 0xff, 0xff, 0xff, 0xff, 0xff, 0x1, 0x0, 0x0, 0x0, 0xc9, 0x94, 0x83, 0x3d, 0x21, 0x0, 0x0, 0x0, 0x63, 0x6f, 0x6e, 0x76, 0x31, 0x64, 0x5f, 0x32, 0x5f, 0x31, 0x2f, 0x63, 0x6f, 0x6e, 0x76, 0x6f, 0x6c, 0x75, 0x74, 0x69, 0x6f, 0x6e, 0x2f, 0x45, 0x78, 0x70, 0x61, 0x6e, 0x64, 0x44, 0x69, 0x6d, 0x73, 0x0, 0x0, 0x0, 0x4, 0x0, 0x0, 0x0, 0x1, 0x0, 0x0, 0x0, 0x1, 0x0, 0x0, 0x0, 0x42, 0x0, 0x0, 0x0, 0x8, 0x0, 0x0, 0x0, 0x4e, 0xe6, 0xff, 0xff, 0x0, 0x0, 0x0, 0x1, 0x14, 0x0, 0x0, 0x0, 0x30, 0x0, 0x0, 0x0, 0x39, 0x0, 0x0, 0x0, 0x0, 0x0, 0x0, 0x9, 0x40, 0x0, 0x0, 0x0, 0x5c, 0xe8, 0xff, 0xff, 0x8, 0x0, 0x0, 0x0, 0x10, 0x0, 0x0, 0x0, 0x1, 0x0, 0x0, 0x0, 0x80, 0xff, 0xff, 0xff, 0xff, 0xff, 0xff, 0xff, 0x1, 0x0, 0x0, 0x0, 0xc9, 0x94, 0x83, 0x3d, 0x16, 0x0, 0x0, 0x0, 0x7a, 0x65, 0x72, 0x6f, 0x5f, 0x70, 0x61, 0x64, 0x64, 0x69, 0x6e, 0x67, 0x31, 0x64, 0x5f, 0x33, 0x5f, 0x31, 0x2f, 0x50, 0x61, 0x64, 0x0, 0x0, 0x3, 0x0, 0x0, 0x0, 0x1, 0x0, 0x0, 0x0, 0x42, 0x0, 0x0, 0x0, 0x8, 0x0, 0x0, 0x0, 0xb6, 0xe6, 0xff, 0xff, 0x0, 0x0, 0x0, 0x1, 0x14, 0x0, 0x0, 0x0, 0x34, 0x0, 0x0, 0x0, 0x38, 0x0, 0x0, 0x0, 0x0, 0x0, 0x0, 0x9, 0x40, 0x0, 0x0, 0x0, 0xc4, 0xe8, 0xff, 0xff, 0x8, 0x0, 0x0, 0x0, 0x14, 0x0, 0x0, 0x0, 0x1, 0x0, 0x0, 0x0, 0x80, 0xff, 0xff, 0xff, 0xff, 0xff, 0xff, 0xff, 0x0, 0x0, 0x0, 0x0, 0x1, 0x0, 0x0, 0x0, 0xc9, 0x94, 0x83, 0x3d, 0x13, 0x0, 0x0, 0x0, 0x61, 0x63, 0x74, 0x69, 0x76, 0x61, 0x74, 0x69, 0x6f, 0x6e, 0x5f, 0x32, 0x5f, 0x31, 0x2f, 0x52, 0x65, 0x6c, 0x75, 0x0, 0x3, 0x0, 0x0, 0x0, 0x1, 0x0, 0x0, 0x0, 0x40, 0x0, 0x0, 0x0, 0x8, 0x0, 0x0, 0x0, 0x1e, 0xe7, 0xff, 0xff, 0x0, 0x0, 0x0, 0x1, 0x14, 0x0, 0x0, 0x0, 0x30, 0x0, 0x0, 0x0, 0x37, 0x0, 0x0, 0x0, 0x0, 0x0, 0x0, 0x9, 0x38, 0x0, 0x0, 0x0, 0x2c, 0xe9, 0xff, 0xff, 0x8, 0x0, 0x0, 0x0, 0x10, 0x0, 0x0, 0x0, 0x1, 0x0, 0x0, 0x0, 0xfe, 0xff, 0xff, 0xff, 0xff, 0xff, 0xff, 0xff, 0x1, 0x0, 0x0, 0x0, 0x33, 0xd3, 0x1, 0x3e, 0xe, 0x0, 0x0, 0x0, 0x63, 0x6f, 0x6e, 0x76, 0x5f, 0x72, 0x65, 0x66, 0x5f, 0x31, 0x2f, 0x61, 0x64, 0x64, 0x0, 0x0, 0x3, 0x0, 0x0, 0x0, 0x1, 0x0, 0x0, 0x0, 0x40, 0x0, 0x0, 0x0, 0x8, 0x0, 0x0, 0x0, 0x7e, 0xe7, 0xff, 0xff, 0x0, 0x0, 0x0, 0x1, 0x14, 0x0, 0x0, 0x0, 0x30, 0x0, 0x0, 0x0, 0x36, 0x0, 0x0, 0x0, 0x0, 0x0, 0x0, 0x9, 0x48, 0x0, 0x0, 0x0, 0x8c, 0xe9, 0xff, 0xff, 0x8, 0x0, 0x0, 0x0, 0x10, 0x0, 0x0, 0x0, 0x1, 0x0, 0x0, 0x0, 0x17, 0x0, 0x0, 0x0, 0x0, 0x0, 0x0, 0x0, 0x1, 0x0, 0x0, 0x0, 0x8c, 0x67, 0xd9, 0x3d, 0x1e, 0x0, 0x0, 0x0, 0x63, 0x6f, 0x6e, 0x76, 0x5f, 0x72, 0x65, 0x66, 0x5f, 0x31, 0x2f, 0x63, 0x6f, 0x6e, 0x76, 0x6f, 0x6c, 0x75, 0x74, 0x69, 0x6f, 0x6e, 0x2f, 0x53, 0x71, 0x75, 0x65, 0x65, 0x7a, 0x65, 0x0, 0x0, 0x3, 0x0, 0x0, 0x0, 0x1, 0x0, 0x0, 0x0, 0x40, 0x0, 0x0, 0x0, 0x8, 0x0, 0x0, 0x0, 0xee, 0xe7, 0xff, 0xff, 0x0, 0x0, 0x0, 0x1, 0x14, 0x0, 0x0, 0x0, 0x34, 0x0, 0x0, 0x0, 0x35, 0x0, 0x0, 0x0, 0x0, 0x0, 0x0, 0x9, 0x44, 0x0, 0x0, 0x0, 0xfc, 0xe9, 0xff, 0xff, 0x8, 0x0, 0x0, 0x0, 0x14, 0x0, 0x0, 0x0, 0x1, 0x0, 0x0, 0x0, 0x17, 0x0, 0x0, 0x0, 0x0, 0x0, 0x0, 0x0, 0x0, 0x0, 0x0, 0x0, 0x1, 0x0, 0x0, 0x0, 0x8c, 0x67, 0xd9, 0x3d, 0x16, 0x0, 0x0, 0x0, 0x63, 0x6f, 0x6e, 0x76, 0x5f, 0x72, 0x65, 0x66, 0x5f, 0x31, 0x2f, 0x63, 0x6f, 0x6e, 0x76, 0x6f, 0x6c, 0x75, 0x74, 0x69, 0x6f, 0x6e, 0x0, 0x0, 0x4, 0x0, 0x0, 0x0, 0x1, 0x0, 0x0, 0x0, 0x1, 0x0, 0x0, 0x0, 0x40, 0x0, 0x0, 0x0, 0x8, 0x0, 0x0, 0x0, 0x5e, 0xe8, 0xff, 0xff, 0x0, 0x0, 0x0, 0x1, 0x14, 0x0, 0x0, 0x0, 0x30, 0x0, 0x0, 0x0, 0x34, 0x0, 0x0, 0x0, 0x0, 0x0, 0x0, 0x9, 0x4c, 0x0, 0x0, 0x0, 0x6c, 0xea, 0xff, 0xff, 0x8, 0x0, 0x0, 0x0, 0x10, 0x0, 0x0, 0x0, 0x1, 0x0, 0x0, 0x0, 0x19, 0x0, 0x0, 0x0, 0x0, 0x0, 0x0, 0x0, 0x1, 0x0, 0x0, 0x0, 0x8f, 0xd4, 0xf0, 0x3d, 0x21, 0x0, 0x0, 0x0, 0x63, 0x6f, 0x6e, 0x76, 0x5f, 0x72, 0x65, 0x66, 0x5f, 0x31, 0x2f, 0x63, 0x6f, 0x6e, 0x76, 0x6f, 0x6c, 0x75, 0x74, 0x69, 0x6f, 0x6e, 0x2f, 0x45, 0x78, 0x70, 0x61, 0x6e, 0x64, 0x44, 0x69, 0x6d, 0x73, 0x0, 0x0, 0x0, 0x4, 0x0, 0x0, 0x0, 0x1, 0x0, 0x0, 0x0, 0x1, 0x0, 0x0, 0x0, 0x42, 0x0, 0x0, 0x0, 0x8, 0x0, 0x0, 0x0, 0xd6, 0xe8, 0xff, 0xff, 0x0, 0x0, 0x0, 0x1, 0x14, 0x0, 0x0, 0x0, 0x30, 0x0, 0x0, 0x0, 0x33, 0x0, 0x0, 0x0, 0x0, 0x0, 0x0, 0x9, 0x40, 0x0, 0x0, 0x0, 0xe4, 0xea, 0xff, 0xff, 0x8, 0x0, 0x0, 0x0, 0x10, 0x0, 0x0, 0x0, 0x1, 0x0, 0x0, 0x0, 0x19, 0x0, 0x0, 0x0, 0x0, 0x0, 0x0, 0x0, 0x1, 0x0, 0x0, 0x0, 0x8f, 0xd4, 0xf0, 0x3d, 0x16, 0x0, 0x0, 0x0, 0x7a, 0x65, 0x72, 0x6f, 0x5f, 0x70, 0x61, 0x64, 0x64, 0x69, 0x6e, 0x67, 0x31, 0x64, 0x5f, 0x32, 0x5f, 0x31, 0x2f, 0x50, 0x61, 0x64, 0x0, 0x0, 0x3, 0x0, 0x0, 0x0, 0x1, 0x0, 0x0, 0x0, 0x42, 0x0, 0x0, 0x0, 0x8, 0x0, 0x0, 0x0, 0x3e, 0xe9, 0xff, 0xff, 0x0, 0x0, 0x0, 0x1, 0x14, 0x0, 0x0, 0x0, 0x34, 0x0, 0x0, 0x0, 0x32, 0x0, 0x0, 0x0, 0x0, 0x0, 0x0, 0x9, 0x50, 0x0, 0x0, 0x0, 0x4c, 0xeb, 0xff, 0xff, 0x8, 0x0, 0x0, 0x0, 0x14, 0x0, 0x0, 0x0, 0x1, 0x0, 0x0, 0x0, 0x19, 0x0, 0x0, 0x0, 0x0, 0x0, 0x0, 0x0, 0x0, 0x0, 0x0, 0x0, 0x1, 0x0, 0x0, 0x0, 0x8f, 0xd4, 0xf0, 0x3d, 0x21, 0x0, 0x0, 0x0, 0x6d, 0x61, 0x78, 0x5f, 0x70, 0x6f, 0x6f, 0x6c, 0x69, 0x6e, 0x67, 0x31, 0x64, 0x5f, 0x31, 0x2f, 0x4d, 0x61, 0x78, 0x50, 0x6f, 0x6f, 0x6c, 0x31, 0x64, 0x2f, 0x53, 0x71, 0x75, 0x65, 0x65, 0x7a, 0x65, 0x0, 0x0, 0x0, 0x3, 0x0, 0x0, 0x0, 0x1, 0x0, 0x0, 0x0, 0x40, 0x0, 0x0, 0x0, 0x8, 0x0, 0x0, 0x0, 0xb6, 0xe9, 0xff, 0xff, 0x0, 0x0, 0x0, 0x1, 0x14, 0x0, 0x0, 0x0, 0x34, 0x0, 0x0, 0x0, 0x31, 0x0, 0x0, 0x0, 0x0, 0x0, 0x0, 0x9, 0x50, 0x0, 0x0, 0x0, 0xc4, 0xeb, 0xff, 0xff, 0x8, 0x0, 0x0, 0x0, 0x14, 0x0, 0x0, 0x0, 0x1, 0x0, 0x0, 0x0, 0xf8, 0xff, 0xff, 0xff, 0xff, 0xff, 0xff, 0xff, 0x0, 0x0, 0x0, 0x0, 0x1, 0x0, 0x0, 0x0, 0x37, 0xfd, 0x98, 0x3d, 0x23, 0x0, 0x0, 0x0, 0x6d, 0x61, 0x78, 0x5f, 0x70, 0x6f, 0x6f, 0x6c, 0x69, 0x6e, 0x67, 0x31, 0x64, 0x5f, 0x31, 0x5f, 0x32, 0x2f, 0x4d, 0x61, 0x78, 0x50, 0x6f, 0x6f, 0x6c, 0x31, 0x64, 0x2f, 0x53, 0x71, 0x75, 0x65, 0x65, 0x7a, 0x65, 0x0, 0x3, 0x0, 0x0, 0x0, 0x1, 0x0, 0x0, 0x0, 0x40, 0x0, 0x0, 0x0, 0x8, 0x0, 0x0, 0x0, 0x2e, 0xea, 0xff, 0xff, 0x0, 0x0, 0x0, 0x1, 0x14, 0x0, 0x0, 0x0, 0x30, 0x0, 0x0, 0x0, 0x30, 0x0, 0x0, 0x0, 0x0, 0x0, 0x0, 0x9, 0x3c, 0x0, 0x0, 0x0, 0x3c, 0xec, 0xff, 0xff, 0x8, 0x0, 0x0, 0x0, 0x10, 0x0, 0x0, 0x0, 0x1, 0x0, 0x0, 0x0, 0x19, 0x0, 0x0, 0x0, 0x0, 0x0, 0x0, 0x0, 0x1, 0x0, 0x0, 0x0, 0x8f, 0xd4, 0xf0, 0x3d, 0x13, 0x0, 0x0, 0x0, 0x61, 0x63, 0x74, 0x69, 0x76, 0x61, 0x74, 0x69, 0x6f, 0x6e, 0x5f, 0x31, 0x5f, 0x32, 0x2f, 0x52, 0x65, 0x6c, 0x75, 0x0, 0x4, 0x0, 0x0, 0x0, 0x1, 0x0, 0x0, 0x0, 0x1, 0x0, 0x0, 0x0, 0x40, 0x0, 0x0, 0x0, 0x8, 0x0, 0x0, 0x0, 0x96, 0xea, 0xff, 0xff, 0x0, 0x0, 0x0, 0x1, 0x14, 0x0, 0x0, 0x0, 0x30, 0x0, 0x0, 0x0, 0x2f, 0x0, 0x0, 0x0, 0x0, 0x0, 0x0, 0x9, 0x44, 0x0, 0x0, 0x0, 0xa4, 0xec, 0xff, 0xff, 0x8, 0x0, 0x0, 0x0, 0x10, 0x0, 0x0, 0x0, 0x1, 0x0, 0x0, 0x0, 0xf8, 0xff, 0xff, 0xff, 0xff, 0xff, 0xff, 0xff, 0x1, 0x0, 0x0, 0x0, 0x37, 0xfd, 0x98, 0x3d, 0x1b, 0x0, 0x0, 0x0, 0x6d, 0x61, 0x78, 0x5f, 0x70, 0x6f, 0x6f, 0x6c, 0x69, 0x6e, 0x67, 0x31, 0x64, 0x5f, 0x31, 0x5f, 0x32, 0x2f, 0x4d, 0x61, 0x78, 0x50, 0x6f, 0x6f, 0x6c, 0x31, 0x64, 0x0, 0x4, 0x0, 0x0, 0x0, 0x1, 0x0, 0x0, 0x0, 0x1, 0x0, 0x0, 0x0, 0x40, 0x0, 0x0, 0x0, 0x8, 0x0, 0x0, 0x0, 0x6, 0xeb, 0xff, 0xff, 0x0, 0x0, 0x0, 0x1, 0x14, 0x0, 0x0, 0x0, 0x34, 0x0, 0x0, 0x0, 0x2e, 0x0, 0x0, 0x0, 0x0, 0x0, 0x0, 0x9, 0x54, 0x0, 0x0, 0x0, 0x14, 0xed, 0xff, 0xff, 0x8, 0x0, 0x0, 0x0, 0x14, 0x0, 0x0, 0x0, 0x1, 0x0, 0x0, 0x0, 0x19, 0x0, 0x0, 0x0, 0x0, 0x0, 0x0, 0x0, 0x0, 0x0, 0x0, 0x0, 0x1, 0x0, 0x0, 0x0, 0x8f, 0xd4, 0xf0, 0x3d, 0x24, 0x0, 0x0, 0x0, 0x6d, 0x61, 0x78, 0x5f, 0x70, 0x6f, 0x6f, 0x6c, 0x69, 0x6e, 0x67, 0x31, 0x64, 0x5f, 0x31, 0x2f, 0x4d, 0x61, 0x78, 0x50, 0x6f, 0x6f, 0x6c, 0x31, 0x64, 0x2f, 0x45, 0x78, 0x70, 0x61, 0x6e, 0x64, 0x44, 0x69, 0x6d, 0x73, 0x0, 0x0, 0x0, 0x0, 0x4, 0x0, 0x0, 0x0, 0x1, 0x0, 0x0, 0x0, 0x1, 0x0, 0x0, 0x0, 0x80, 0x0, 0x0, 0x0, 0x8, 0x0, 0x0, 0x0, 0x86, 0xeb, 0xff, 0xff, 0x0, 0x0, 0x0, 0x1, 0x14, 0x0, 0x0, 0x0, 0x34, 0x0, 0x0, 0x0, 0x2d, 0x0, 0x0, 0x0, 0x0, 0x0, 0x0, 0x9, 0x54, 0x0, 0x0, 0x0, 0x94, 0xed, 0xff, 0xff, 0x8, 0x0, 0x0, 0x0, 0x14, 0x0, 0x0, 0x0, 0x1, 0x0, 0x0, 0x0, 0xf8, 0xff, 0xff, 0xff, 0xff, 0xff, 0xff, 0xff, 0x0, 0x0, 0x0, 0x0, 0x1, 0x0, 0x0, 0x0, 0x37, 0xfd, 0x98, 0x3d, 0x26, 0x0, 0x0, 0x0, 0x6d, 0x61, 0x78, 0x5f, 0x70, 0x6f, 0x6f, 0x6c, 0x69, 0x6e, 0x67, 0x31, 0x64, 0x5f, 0x31, 0x5f, 0x32, 0x2f, 0x4d, 0x61, 0x78, 0x50, 0x6f, 0x6f, 0x6c, 0x31, 0x64, 0x2f, 0x45, 0x78, 0x70, 0x61, 0x6e, 0x64, 0x44, 0x69, 0x6d, 0x73, 0x0, 0x0, 0x4, 0x0, 0x0, 0x0, 0x1, 0x0, 0x0, 0x0, 0x1, 0x0, 0x0, 0x0, 0x80, 0x0, 0x0, 0x0, 0x8, 0x0, 0x0, 0x0, 0x6, 0xec, 0xff, 0xff, 0x0, 0x0, 0x0, 0x1, 0x14, 0x0, 0x0, 0x0, 0x30, 0x0, 0x0, 0x0, 0x2c, 0x0, 0x0, 0x0, 0x0, 0x0, 0x0, 0x9, 0x38, 0x0, 0x0, 0x0, 0x14, 0xee, 0xff, 0xff, 0x8, 0x0, 0x0, 0x0, 0x10, 0x0, 0x0, 0x0, 0x1, 0x0, 0x0, 0x0, 0x19, 0x0, 0x0, 0x0, 0x0, 0x0, 0x0, 0x0, 0x1, 0x0, 0x0, 0x0, 0x8f, 0xd4, 0xf0, 0x3d, 0xe, 0x0, 0x0, 0x0, 0x63, 0x6f, 0x6e, 0x76, 0x31, 0x64, 0x5f, 0x31, 0x5f, 0x32, 0x2f, 0x61, 0x64, 0x64, 0x0, 0x0, 0x3, 0x0, 0x0, 0x0, 0x1, 0x0, 0x0, 0x0, 0x80, 0x0, 0x0, 0x0, 0x8, 0x0, 0x0, 0x0, 0x66, 0xec, 0xff, 0xff, 0x0, 0x0, 0x0, 0x1, 0x14, 0x0, 0x0, 0x0, 0x34, 0x0, 0x0, 0x0, 0x2b, 0x0, 0x0, 0x0, 0x0, 0x0, 0x0, 0x9, 0x40, 0x0, 0x0, 0x0, 0x74, 0xee, 0xff, 0xff, 0x8, 0x0, 0x0, 0x0, 0x14, 0x0, 0x0, 0x0, 0x1, 0x0, 0x0, 0x0, 0xf8, 0xff, 0xff, 0xff, 0xff, 0xff, 0xff, 0xff, 0x0, 0x0, 0x0, 0x0, 0x1, 0x0, 0x0, 0x0, 0x37, 0xfd, 0x98, 0x3d, 0x13, 0x0, 0x0, 0x0, 0x63, 0x6f, 0x6e, 0x76, 0x5f, 0x73, 0x68, 0x6f, 0x72, 0x74, 0x63, 0x75, 0x74, 0x5f, 0x31, 0x2f, 0x61, 0x64, 0x64, 0x0, 0x3, 0x0, 0x0, 0x0, 0x1, 0x0, 0x0, 0x0, 0x80, 0x0, 0x0, 0x0, 0x8, 0x0, 0x0, 0x0, 0xce, 0xec, 0xff, 0xff, 0x0, 0x0, 0x0, 0x1, 0x14, 0x0, 0x0, 0x0, 0x30, 0x0, 0x0, 0x0, 0x2a, 0x0, 0x0, 0x0, 0x0, 0x0, 0x0, 0x9, 0x48, 0x0, 0x0, 0x0, 0xdc, 0xee, 0xff, 0xff, 0x8, 0x0, 0x0, 0x0, 0x10, 0x0, 0x0, 0x0, 0x1, 0x0, 0x0, 0x0, 0x19, 0x0, 0x0, 0x0, 0x0, 0x0, 0x0, 0x0, 0x1, 0x0, 0x0, 0x0, 0xa7, 0x8e, 0xee, 0x3d, 0x1e, 0x0, 0x0, 0x0, 0x63, 0x6f, 0x6e, 0x76, 0x31, 0x64, 0x5f, 0x31, 0x5f, 0x32, 0x2f, 0x63, 0x6f, 0x6e, 0x76, 0x6f, 0x6c, 0x75, 0x74, 0x69, 0x6f, 0x6e, 0x2f, 0x53, 0x71, 0x75, 0x65, 0x65, 0x7a, 0x65, 0x0, 0x0, 0x3, 0x0, 0x0, 0x0, 0x1, 0x0, 0x0, 0x0, 0x80, 0x0, 0x0, 0x0, 0x8, 0x0, 0x0, 0x0, 0x3e, 0xed, 0xff, 0xff, 0x0, 0x0, 0x0, 0x1, 0x14, 0x0, 0x0, 0x0, 0x34, 0x0, 0x0, 0x0, 0x29, 0x0, 0x0, 0x0, 0x0, 0x0, 0x0, 0x9, 0x50, 0x0, 0x0, 0x0, 0x4c, 0xef, 0xff, 0xff, 0x8, 0x0, 0x0, 0x0, 0x14, 0x0, 0x0, 0x0, 0x1, 0x0, 0x0, 0x0, 0xf5, 0xff, 0xff, 0xff, 0xff, 0xff, 0xff, 0xff, 0x0, 0x0, 0x0, 0x0, 0x1, 0x0, 0x0, 0x0, 0x1c, 0xa4, 0x98, 0x3d, 0x23, 0x0, 0x0, 0x0, 0x63, 0x6f, 0x6e, 0x76, 0x5f, 0x73, 0x68, 0x6f, 0x72, 0x74, 0x63, 0x75, 0x74, 0x5f, 0x31, 0x2f, 0x63, 0x6f, 0x6e, 0x76, 0x6f, 0x6c, 0x75, 0x74, 0x69, 0x6f, 0x6e, 0x2f, 0x53, 0x71, 0x75, 0x65, 0x65, 0x7a, 0x65, 0x0, 0x3, 0x0, 0x0, 0x0, 0x1, 0x0, 0x0, 0x0, 0x80, 0x0, 0x0, 0x0, 0x8, 0x0, 0x0, 0x0, 0xb6, 0xed, 0xff, 0xff, 0x0, 0x0, 0x0, 0x1, 0x14, 0x0, 0x0, 0x0, 0x34, 0x0, 0x0, 0x0, 0x28, 0x0, 0x0, 0x0, 0x0, 0x0, 0x0, 0x9, 0x44, 0x0, 0x0, 0x0, 0xc4, 0xef, 0xff, 0xff, 0x8, 0x0, 0x0, 0x0, 0x14, 0x0, 0x0, 0x0, 0x1, 0x0, 0x0, 0x0, 0x19, 0x0, 0x0, 0x0, 0x0, 0x0, 0x0, 0x0, 0x0, 0x0, 0x0, 0x0, 0x1, 0x0, 0x0, 0x0, 0xa7, 0x8e, 0xee, 0x3d, 0x16, 0x0, 0x0, 0x0, 0x63, 0x6f, 0x6e, 0x76, 0x31, 0x64, 0x5f, 0x31, 0x5f, 0x32, 0x2f, 0x63, 0x6f, 0x6e, 0x76, 0x6f, 0x6c, 0x75, 0x74, 0x69, 0x6f, 0x6e, 0x0, 0x0, 0x4, 0x0, 0x0, 0x0, 0x1, 0x0, 0x0, 0x0, 0x1, 0x0, 0x0, 0x0, 0x80, 0x0, 0x0, 0x0, 0x8, 0x0, 0x0, 0x0, 0x26, 0xee, 0xff, 0xff, 0x0, 0x0, 0x0, 0x1, 0x14, 0x0, 0x0, 0x0, 0x30, 0x0, 0x0, 0x0, 0x27, 0x0, 0x0, 0x0, 0x0, 0x0, 0x0, 0x9, 0x44, 0x0, 0x0, 0x0, 0x34, 0xf0, 0xff, 0xff, 0x8, 0x0, 0x0, 0x0, 0x10, 0x0, 0x0, 0x0, 0x1, 0x0, 0x0, 0x0, 0xf5, 0xff, 0xff, 0xff, 0xff, 0xff, 0xff, 0xff, 0x1, 0x0, 0x0, 0x0, 0x1c, 0xa4, 0x98, 0x3d, 0x1b, 0x0, 0x0, 0x0, 0x63, 0x6f, 0x6e, 0x76, 0x5f, 0x73, 0x68, 0x6f, 0x72, 0x74, 0x63, 0x75, 0x74, 0x5f, 0x31, 0x2f, 0x63, 0x6f, 0x6e, 0x76, 0x6f, 0x6c, 0x75, 0x74, 0x69, 0x6f, 0x6e, 0x0, 0x4, 0x0, 0x0, 0x0, 0x1, 0x0, 0x0, 0x0, 0x1, 0x0, 0x0, 0x0, 0x80, 0x0, 0x0, 0x0, 0x8, 0x0, 0x0, 0x0, 0x96, 0xee, 0xff, 0xff, 0x0, 0x0, 0x0, 0x1, 0x14, 0x0, 0x0, 0x0, 0x30, 0x0, 0x0, 0x0, 0x26, 0x0, 0x0, 0x0, 0x0, 0x0, 0x0, 0x9, 0x4c, 0x0, 0x0, 0x0, 0xa4, 0xf0, 0xff, 0xff, 0x8, 0x0, 0x0, 0x0, 0x10, 0x0, 0x0, 0x0, 0x1, 0x0, 0x0, 0x0, 0x80, 0xff, 0xff, 0xff, 0xff, 0xff, 0xff, 0xff, 0x1, 0x0, 0x0, 0x0, 0xd2, 0x61, 0x7f, 0x3d, 0x21, 0x0, 0x0, 0x0, 0x63, 0x6f, 0x6e, 0x76, 0x31, 0x64, 0x5f, 0x31, 0x5f, 0x32, 0x2f, 0x63, 0x6f, 0x6e, 0x76, 0x6f, 0x6c, 0x75, 0x74, 0x69, 0x6f, 0x6e, 0x2f, 0x45, 0x78, 0x70, 0x61, 0x6e, 0x64, 0x44, 0x69, 0x6d, 0x73, 0x0, 0x0, 0x0, 0x4, 0x0, 0x0, 0x0, 0x1, 0x0, 0x0, 0x0, 0x1, 0x0, 0x0, 0x0, 0x82, 0x0, 0x0, 0x0, 0x8, 0x0, 0x0, 0x0, 0xe, 0xef, 0xff, 0xff, 0x0, 0x0, 0x0, 0x1, 0x14, 0x0, 0x0, 0x0, 0x34, 0x0, 0x0, 0x0, 0x25, 0x0, 0x0, 0x0, 0x0, 0x0, 0x0, 0x9, 0x54, 0x0, 0x0, 0x0, 0x1c, 0xf1, 0xff, 0xff, 0x8, 0x0, 0x0, 0x0, 0x14, 0x0, 0x0, 0x0, 0x1, 0x0, 0x0, 0x0, 0x80, 0xff, 0xff, 0xff, 0xff, 0xff, 0xff, 0xff, 0x0, 0x0, 0x0, 0x0, 0x1, 0x0, 0x0, 0x0, 0xd2, 0x61, 0x7f, 0x3d, 0x26, 0x0, 0x0, 0x0, 0x63, 0x6f, 0x6e, 0x76, 0x5f, 0x73, 0x68, 0x6f, 0x72, 0x74, 0x63, 0x75, 0x74, 0x5f, 0x31, 0x2f, 0x63, 0x6f, 0x6e, 0x76, 0x6f, 0x6c, 0x75, 0x74, 0x69, 0x6f, 0x6e, 0x2f, 0x45, 0x78, 0x70, 0x61, 0x6e, 0x64, 0x44, 0x69, 0x6d, 0x73, 0x0, 0x0, 0x4, 0x0, 0x0, 0x0, 0x1, 0x0, 0x0, 0x0, 0x1, 0x0, 0x0, 0x0, 0x80, 0x0, 0x0, 0x0, 0x8, 0x0, 0x0, 0x0, 0x8e, 0xef, 0xff, 0xff, 0x0, 0x0, 0x0, 0x1, 0x14, 0x0, 0x0, 0x0, 0x30, 0x0, 0x0, 0x0, 0x24, 0x0, 0x0, 0x0, 0x0, 0x0, 0x0, 0x9, 0x40, 0x0, 0x0, 0x0, 0x9c, 0xf1, 0xff, 0xff, 0x8, 0x0, 0x0, 0x0, 0x10, 0x0, 0x0, 0x0, 0x1, 0x0, 0x0, 0x0, 0x80, 0xff, 0xff, 0xff, 0xff, 0xff, 0xff, 0xff, 0x1, 0x0, 0x0, 0x0, 0xd2, 0x61, 0x7f, 0x3d, 0x16, 0x0, 0x0, 0x0, 0x7a, 0x65, 0x72, 0x6f, 0x5f, 0x70, 0x61, 0x64, 0x64, 0x69, 0x6e, 0x67, 0x31, 0x64, 0x5f, 0x31, 0x5f, 0x32, 0x2f, 0x50, 0x61, 0x64, 0x0, 0x0, 0x3, 0x0, 0x0, 0x0, 0x1, 0x0, 0x0, 0x0, 0x82, 0x0, 0x0, 0x0, 0x8, 0x0, 0x0, 0x0, 0xf6, 0xef, 0xff, 0xff, 0x0, 0x0, 0x0, 0x1, 0x14, 0x0, 0x0, 0x0, 0x34, 0x0, 0x0, 0x0, 0x23, 0x0, 0x0, 0x0, 0x0, 0x0, 0x0, 0x9, 0x40, 0x0, 0x0, 0x0, 0x4, 0xf2, 0xff, 0xff, 0x8, 0x0, 0x0, 0x0, 0x14, 0x0, 0x0, 0x0, 0x1, 0x0, 0x0, 0x0, 0x80, 0xff, 0xff, 0xff, 0xff, 0xff, 0xff, 0xff, 0x0, 0x0, 0x0, 0x0, 0x1, 0x0, 0x0, 0x0, 0xd2, 0x61, 0x7f, 0x3d, 0x11, 0x0, 0x0, 0x0, 0x61, 0x63, 0x74, 0x69, 0x76, 0x61, 0x74, 0x69, 0x6f, 0x6e, 0x5f, 0x31, 0x2f, 0x52, 0x65, 0x6c, 0x75, 0x0, 0x0, 0x0, 0x3, 0x0, 0x0, 0x0, 0x1, 0x0, 0x0, 0x0, 0x80, 0x0, 0x0, 0x0, 0x8, 0x0, 0x0, 0x0, 0x5e, 0xf0, 0xff, 0xff, 0x0, 0x0, 0x0, 0x1, 0x14, 0x0, 0x0, 0x0, 0x30, 0x0, 0x0, 0x0, 0x22, 0x0, 0x0, 0x0, 0x0, 0x0, 0x0, 0x9, 0x48, 0x0, 0x0, 0x0, 0x6c, 0xf2, 0xff, 0xff, 0x8, 0x0, 0x0, 0x0, 0x10, 0x0, 0x0, 0x0, 0x1, 0x0, 0x0, 0x0, 0xec, 0xff, 0xff, 0xff, 0xff, 0xff, 0xff, 0xff, 0x1, 0x0, 0x0, 0x0, 0x0, 0x8a, 0xdb, 0x3d, 0x1c, 0x0, 0x0, 0x0, 0x63, 0x6f, 0x6e, 0x76, 0x31, 0x64, 0x5f, 0x31, 0x2f, 0x63, 0x6f, 0x6e, 0x76, 0x6f, 0x6c, 0x75, 0x74, 0x69, 0x6f, 0x6e, 0x2f, 0x53, 0x71, 0x75, 0x65, 0x65, 0x7a, 0x65, 0x0, 0x0, 0x0, 0x0, 0x3, 0x0, 0x0, 0x0, 0x1, 0x0, 0x0, 0x0, 0x80, 0x0, 0x0, 0x0, 0x8, 0x0, 0x0, 0x0, 0xce, 0xf0, 0xff, 0xff, 0x0, 0x0, 0x0, 0x1, 0x14, 0x0, 0x0, 0x0, 0x34, 0x0, 0x0, 0x0, 0x21, 0x0, 0x0, 0x0, 0x0, 0x0, 0x0, 0x9, 0x44, 0x0, 0x0, 0x0, 0xdc, 0xf2, 0xff, 0xff, 0x8, 0x0, 0x0, 0x0, 0x14, 0x0, 0x0, 0x0, 0x1, 0x0, 0x0, 0x0, 0xec, 0xff, 0xff, 0xff, 0xff, 0xff, 0xff, 0xff, 0x0, 0x0, 0x0, 0x0, 0x1, 0x0, 0x0, 0x0, 0x0, 0x8a, 0xdb, 0x3d, 0x14, 0x0, 0x0, 0x0, 0x63, 0x6f, 0x6e, 0x76, 0x31, 0x64, 0x5f, 0x31, 0x2f, 0x63, 0x6f, 0x6e, 0x76, 0x6f, 0x6c, 0x75, 0x74, 0x69, 0x6f, 0x6e, 0x0, 0x0, 0x0, 0x0, 0x4, 0x0, 0x0, 0x0, 0x1, 0x0, 0x0, 0x0, 0x1, 0x0, 0x0, 0x0, 0x80, 0x0, 0x0, 0x0, 0x8, 0x0, 0x0, 0x0, 0x3e, 0xf1, 0xff, 0xff, 0x0, 0x0, 0x0, 0x1, 0x14, 0x0, 0x0, 0x0, 0x34, 0x0, 0x0, 0x0, 0x20, 0x0, 0x0, 0x0, 0x0, 0x0, 0x0, 0x9, 0x4c, 0x0, 0x0, 0x0, 0x4c, 0xf3, 0xff, 0xff, 0x8, 0x0, 0x0, 0x0, 0x14, 0x0, 0x0, 0x0, 0x1, 0x0, 0x0, 0x0, 0x1, 0x0, 0x0, 0x0, 0x0, 0x0, 0x0, 0x0, 0x0, 0x0, 0x0, 0x0, 0x1, 0x0, 0x0, 0x0, 0x0, 0xd2, 0xf2, 0x3d, 0x1f, 0x0, 0x0, 0x0, 0x63, 0x6f, 0x6e, 0x76, 0x31, 0x64, 0x5f, 0x31, 0x2f, 0x63, 0x6f, 0x6e, 0x76, 0x6f, 0x6c, 0x75, 0x74, 0x69, 0x6f, 0x6e, 0x2f, 0x45, 0x78, 0x70, 0x61, 0x6e, 0x64, 0x44, 0x69, 0x6d, 0x73, 0x0, 0x4, 0x0, 0x0, 0x0, 0x1, 0x0, 0x0, 0x0, 0x1, 0x0, 0x0, 0x0, 0x82, 0x0, 0x0, 0x0, 0x9, 0x0, 0x0, 0x0, 0xb6, 0xf1, 0xff, 0xff, 0x0, 0x0, 0x0, 0x1, 0x14, 0x0, 0x0, 0x0, 0x30, 0x0, 0x0, 0x0, 0x1f, 0x0, 0x0, 0x0, 0x0, 0x0, 0x0, 0x9, 0x40, 0x0, 0x0, 0x0, 0xc4, 0xf3, 0xff, 0xff, 0x8, 0x0, 0x0, 0x0, 0x10, 0x0, 0x0, 0x0, 0x1, 0x0, 0x0, 0x0, 0x1, 0x0, 0x0, 0x0, 0x0, 0x0, 0x0, 0x0, 0x1, 0x0, 0x0, 0x0, 0x0, 0xd2, 0xf2, 0x3d, 0x14, 0x0, 0x0, 0x0, 0x7a, 0x65, 0x72, 0x6f, 0x5f, 0x70, 0x61, 0x64, 0x64, 0x69, 0x6e, 0x67, 0x31, 0x64, 0x5f, 0x31, 0x2f, 0x50, 0x61, 0x64, 0x0, 0x0, 0x0, 0x0, 0x3, 0x0, 0x0, 0x0, 0x1, 0x0, 0x0, 0x0, 0x82, 0x0, 0x0, 0x0, 0x9, 0x0, 0x0, 0x0, 0x1e, 0xf2, 0xff, 0xff, 0x0, 0x0, 0x0, 0x1, 0x14, 0x0, 0x0, 0x0, 0x30, 0x0, 0x0, 0x0, 0x1e, 0x0, 0x0, 0x0, 0x0, 0x0, 0x0, 0x9, 0x38, 0x0, 0x0, 0x0, 0x2c, 0xf4, 0xff, 0xff, 0x8, 0x0, 0x0, 0x0, 0x10, 0x0, 0x0, 0x0, 0x1, 0x0, 0x0, 0x0, 0x1, 0x0, 0x0, 0x0, 0x0, 0x0, 0x0, 0x0, 0x1, 0x0, 0x0, 0x0, 0x0, 0xd2, 0xf2, 0x3d, 0xc, 0x0, 0x0, 0x0, 0x74, 0x66, 0x6c, 0x2e, 0x71, 0x75, 0x61, 0x6e, 0x74, 0x69, 0x7a, 0x65, 0x0, 0x0, 0x0, 0x0, 0x3, 0x0, 0x0, 0x0, 0x1, 0x0, 0x0, 0x0, 0x80, 0x0, 0x0, 0x0, 0x9, 0x0, 0x0, 0x0, 0x7e, 0xf2, 0xff, 0xff, 0x0, 0x0, 0x0, 0x1, 0x14, 0x0, 0x0, 0x0, 0x88, 0x0, 0x0, 0x0, 0x1d, 0x0, 0x0, 0x0, 0x0, 0x0, 0x0, 0x9, 0x94, 0x0, 0x0, 0x0, 0x8c, 0xf4, 0xff, 0xff, 0x8, 0x0, 0x0, 0x0, 0x4c, 0x0, 0x0, 0x0, 0x8, 0x0, 0x0, 0x0, 0x0, 0x0, 0x0, 0x0, 0x0, 0x0, 0x0, 0x0, 0x0, 0x0, 0x0, 0x0, 0x0, 0x0, 0x0, 0x0, 0x0, 0x0, 0x0, 0x0, 0x0, 0x0, 0x0, 0x0, 0x0, 0x0, 0x0, 0x0, 0x0, 0x0, 0x0, 0x0, 0x0, 0x0, 0x0, 0x0, 0x0, 0x0, 0x0, 0x0, 0x0, 0x0, 0x0, 0x0, 0x0, 0x0, 0x0, 0x0, 0x0, 0x0, 0x0, 0x0, 0x0, 0x0, 0x0, 0x0, 0x0, 0x0, 0x0, 0x0, 0x0, 0x0, 0x0, 0x0, 0x0, 0x0, 0x0, 0x0, 0x8, 0x0, 0x0, 0x0, 0x66, 0x24, 0xa9, 0x3b, 0x58, 0xad, 0x9d, 0x3b, 0x35, 0xbe, 0xbb, 0x3b, 0xa7, 0xb7, 0x85, 0x3b, 0xc1, 0x7c, 0x8b, 0x3b, 0x30, 0x4, 0xa8, 0x3b, 0xd6, 0x1c, 0x70, 0x3b, 0x8f, 0xa, 0x6f, 0x3b, 0x13, 0x0, 0x0, 0x0, 0x74, 0x66, 0x6c, 0x2e, 0x70, 0x73, 0x65, 0x75, 0x64, 0x6f, 0x5f, 0x71, 0x63, 0x6f, 0x6e, 0x73, 0x74, 0x31, 0x39, 0x0, 0x4, 0x0, 0x0, 0x0, 0x8, 0x0, 0x0, 0x0, 0x1, 0x0, 0x0, 0x0, 0x3, 0x0, 0x0, 0x0, 0x9, 0x0, 0x0, 0x0, 0x3e, 0xf3, 0xff, 0xff, 0x0, 0x0, 0x0, 0x1, 0x14, 0x0, 0x0, 0x0, 0x84, 0x0, 0x0, 0x0, 0x17, 0x0, 0x0, 0x0, 0x0, 0x0, 0x0, 0x2, 0x90, 0x0, 0x0, 0x0, 0x4c, 0xf5, 0xff, 0xff, 0x8, 0x0, 0x0, 0x0, 0x48, 0x0, 0x0, 0x0, 0x8, 0x0, 0x0, 0x0, 0x0, 0x0, 0x0, 0x0, 0x0, 0x0, 0x0, 0x0, 0x0, 0x0, 0x0, 0x0, 0x0, 0x0, 0x0, 0x0, 0x0, 0x0, 0x0, 0x0, 0x0, 0x0, 0x0, 0x0, 0x0, 0x0, 0x0, 0x0, 0x0, 0x0, 0x0, 0x0, 0x0, 0x0, 0x0, 0x0, 0x0, 0x0, 0x0, 0x0, 0x0, 0x0, 0x0, 0x0, 0x0, 0x0, 0x0, 0x0, 0x0, 0x0, 0x0, 0x0, 0x0, 0x0, 0x0, 0x0, 0x0, 0x0, 0x0, 0x0, 0x0, 0x0, 0x0, 0x0, 0x8, 0x0, 0x0, 0x0, 0x28, 0x6f, 0x20, 0x3a, 0x35, 0x8f, 0x15, 0x3a, 0xd0, 0x13, 0x32, 0x3a, 0x99, 0xaa, 0xfd, 0x39, 0x5b, 0x4e, 0x4, 0x3a, 0xc9, 0x5d, 0x1f, 0x3a, 0x3a, 0xc0, 0xe3, 0x39, 0x12, 0xbc, 0xe2, 0x39, 0x13, 0x0, 0x0, 0x0, 0x74, 0x66, 0x6c, 0x2e, 0x70, 0x73, 0x65, 0x75, 0x64, 0x6f, 0x5f, 0x71, 0x63, 0x6f, 0x6e, 0x73, 0x74, 0x31, 0x38, 0x0, 0x1, 0x0, 0x0, 0x0, 0x8, 0x0, 0x0, 0x0, 0xee, 0xf3, 0xff, 0xff, 0x0, 0x0, 0x0, 0x1, 0x14, 0x0, 0x0, 0x0, 0x84, 0x0, 0x0, 0x0, 0x17, 0x0, 0x0, 0x0, 0x0, 0x0, 0x0, 0x2, 0x90, 0x0, 0x0, 0x0, 0xfc, 0xf5, 0xff, 0xff, 0x8, 0x0, 0x0, 0x0, 0x48, 0x0, 0x0, 0x0, 0x8, 0x0, 0x0, 0x0, 0x0, 0x0, 0x0, 0x0, 0x0, 0x0, 0x0, 0x0, 0x0, 0x0, 0x0, 0x0, 0x0, 0x0, 0x0, 0x0, 0x0, 0x0, 0x0, 0x0, 0x0, 0x0, 0x0, 0x0, 0x0, 0x0, 0x0, 0x0, 0x0, 0x0, 0x0, 0x0, 0x0, 0x0, 0x0, 0x0, 0x0, 0x0, 0x0, 0x0, 0x0, 0x0, 0x0, 0x0, 0x0, 0x0, 0x0, 0x0, 0x0, 0x0, 0x0, 0x0, 0x0, 0x0, 0x0, 0x0, 0x0, 0x0, 0x0, 0x0, 0x0, 0x0, 0x0, 0x0, 0x8, 0x0, 0x0, 0x0, 0x20, 0x48, 0x8d, 0x39, 0x9e, 0x37, 0x4b, 0x39, 0x47, 0x4a, 0xd3, 0x38, 0xc1, 0x4b, 0x9d, 0x39, 0xb9, 0xb3, 0x88, 0x39, 0xe5, 0xd, 0xc1, 0x39, 0x4d, 0x40, 0x43, 0x39, 0xe9, 0xbf, 0x94, 0x39, 0x13, 0x0, 0x0, 0x0, 0x74, 0x66, 0x6c, 0x2e, 0x70, 0x73, 0x65, 0x75, 0x64, 0x6f, 0x5f, 0x71, 0x63, 0x6f, 0x6e, 0x73, 0x74, 0x31, 0x37, 0x0, 0x1, 0x0, 0x0, 0x0, 0x8, 0x0, 0x0, 0x0, 0x9e, 0xf4, 0xff, 0xff, 0x0, 0x0, 0x0, 0x1, 0x14, 0x0, 0x0, 0x0, 0x84, 0x0, 0x0, 0x0, 0x17, 0x0, 0x0, 0x0, 0x0, 0x0, 0x0, 0x2, 0x90, 0x0, 0x0, 0x0, 0xac, 0xf6, 0xff, 0xff, 0x8, 0x0, 0x0, 0x0, 0x48, 0x0, 0x0, 0x0, 0x8, 0x0, 0x0, 0x0, 0x0, 0x0, 0x0, 0x0, 0x0, 0x0, 0x0, 0x0, 0x0, 0x0, 0x0, 0x0, 0x0, 0x0, 0x0, 0x0, 0x0, 0x0, 0x0, 0x0, 0x0, 0x0, 0x0, 0x0, 0x0, 0x0, 0x0, 0x0, 0x0, 0x0, 0x0, 0x0, 0x0, 0x0, 0x0, 0x0, 0x0, 0x0, 0x0, 0x0, 0x0, 0x0, 0x0, 0x0, 0x0, 0x0, 0x0, 0x0, 0x0, 0x0, 0x0, 0x0, 0x0, 0x0, 0x0, 0x0, 0x0, 0x0, 0x0, 0x0, 0x0, 0x0, 0x0, 0x0, 0x8, 0x0, 0x0, 0x0, 0xf, 0x1b, 0xc5, 0x39, 0xdf, 0x4, 0x83, 0x39, 0x76, 0xfe, 0x3, 0x39, 0x4f, 0xbe, 0x82, 0x39, 0xdd, 0x81, 0x8c, 0x39, 0xa2, 0xfe, 0x68, 0x39, 0x56, 0xd9, 0x42, 0x39, 0xce, 0xc6, 0x9d, 0x39, 0x13, 0x0, 0x0, 0x0, 0x74, 0x66, 0x6c, 0x2e, 0x70, 0x73, 0x65, 0x75, 0x64, 0x6f, 0x5f, 0x71, 0x63, 0x6f, 0x6e, 0x73, 0x74, 0x31, 0x36, 0x0, 0x1, 0x0, 0x0, 0x0, 0x8, 0x0, 0x0, 0x0, 0x4e, 0xf5, 0xff, 0xff, 0x0, 0x0, 0x0, 0x1, 0x14, 0x0, 0x0, 0x0, 0x84, 0x0, 0x0, 0x0, 0x17, 0x0, 0x0, 0x0, 0x0, 0x0, 0x0, 0x2, 0x90, 0x0, 0x0, 0x0, 0x5c, 0xf7, 0xff, 0xff, 0x8, 0x0, 0x0, 0x0, 0x48, 0x0, 0x0, 0x0, 0x8, 0x0, 0x0, 0x0, 0x0, 0x0, 0x0, 0x0, 0x0, 0x0, 0x0, 0x0, 0x0, 0x0, 0x0, 0x0, 0x0, 0x0, 0x0, 0x0, 0x0, 0x0, 0x0, 0x0, 0x0, 0x0, 0x0, 0x0, 0x0, 0x0, 0x0, 0x0, 0x0, 0x0, 0x0, 0x0, 0x0, 0x0, 0x0, 0x0, 0x0, 0x0, 0x0, 0x0, 0x0, 0x0, 0x0, 0x0, 0x0, 0x0, 0x0, 0x0, 0x0, 0x0, 0x0, 0x0, 0x0, 0x0, 0x0, 0x0, 0x0, 0x0, 0x0, 0x0, 0x0, 0x0, 0x0, 0x0, 0x8, 0x0, 0x0, 0x0, 0xbe, 0x89, 0xdc, 0x39, 0x38, 0x45, 0xcb, 0x39, 0xc7, 0x23, 0x7c, 0x3a, 0xf9, 0xa5, 0xdd, 0x39, 0xd, 0xdd, 0xb, 0x3a, 0x22, 0x2c, 0xc1, 0x39, 0x97, 0x8e, 0x8b, 0x39, 0x8d, 0x3, 0x13, 0x3a, 0x13, 0x0, 0x0, 0x0, 0x74, 0x66, 0x6c, 0x2e, 0x70, 0x73, 0x65, 0x75, 0x64, 0x6f, 0x5f, 0x71, 0x63, 0x6f, 0x6e, 0x73, 0x74, 0x31, 0x35, 0x0, 0x1, 0x0, 0x0, 0x0, 0x8, 0x0, 0x0, 0x0, 0xfe, 0xf5, 0xff, 0xff, 0x0, 0x0, 0x0, 0x1, 0x14, 0x0, 0x0, 0x0, 0x84, 0x0, 0x0, 0x0, 0x17, 0x0, 0x0, 0x0, 0x0, 0x0, 0x0, 0x2, 0x90, 0x0, 0x0, 0x0, 0xc, 0xf8, 0xff, 0xff, 0x8, 0x0, 0x0, 0x0, 0x48, 0x0, 0x0, 0x0, 0x8, 0x0, 0x0, 0x0, 0x0, 0x0, 0x0, 0x0, 0x0, 0x0, 0x0, 0x0, 0x0, 0x0, 0x0, 0x0, 0x0, 0x0, 0x0, 0x0, 0x0, 0x0, 0x0, 0x0, 0x0, 0x0, 0x0, 0x0, 0x0, 0x0, 0x0, 0x0, 0x0, 0x0, 0x0, 0x0, 0x0, 0x0, 0x0, 0x0, 0x0, 0x0, 0x0, 0x0, 0x0, 0x0, 0x0, 0x0, 0x0, 0x0, 0x0, 0x0, 0x0, 0x0, 0x0, 0x0, 0x0, 0x0, 0x0, 0x0, 0x0, 0x0, 0x0, 0x0, 0x0, 0x0, 0x0, 0x0, 0x8, 0x0, 0x0, 0x0, 0x33, 0xbb, 0xb5, 0x39, 0x27, 0x82, 0x8c, 0x39, 0x2f, 0x63, 0xd6, 0x39, 0x7f, 0xf3, 0x55, 0x39, 0xaf, 0x1a, 0xac, 0x39, 0xd3, 0xd0, 0xa5, 0x39, 0x2c, 0x58, 0x79, 0x39, 0xdc, 0xd2, 0x84, 0x39, 0x13, 0x0, 0x0, 0x0, 0x74, 0x66, 0x6c, 0x2e, 0x70, 0x73, 0x65, 0x75, 0x64, 0x6f, 0x5f, 0x71, 0x63, 0x6f, 0x6e, 0x73, 0x74, 0x31, 0x34, 0x0, 0x1, 0x0, 0x0, 0x0, 0x8, 0x0, 0x0, 0x0, 0xae, 0xf6, 0xff, 0xff, 0x0, 0x0, 0x0, 0x1, 0x14, 0x0, 0x0, 0x0, 0x84, 0x0, 0x0, 0x0, 0x17, 0x0, 0x0, 0x0, 0x0, 0x0, 0x0, 0x2, 0x90, 0x0, 0x0, 0x0, 0xbc, 0xf8, 0xff, 0xff, 0x8, 0x0, 0x0, 0x0, 0x48, 0x0, 0x0, 0x0, 0x8, 0x0, 0x0, 0x0, 0x0, 0x0, 0x0, 0x0, 0x0, 0x0, 0x0, 0x0, 0x0, 0x0, 0x0, 0x0, 0x0, 0x0, 0x0, 0x0, 0x0, 0x0, 0x0, 0x0, 0x0, 0x0, 0x0, 0x0, 0x0, 0x0, 0x0, 0x0, 0x0, 0x0, 0x0, 0x0, 0x0, 0x0, 0x0, 0x0, 0x0, 0x0, 0x0, 0x0, 0x0, 0x0, 0x0, 0x0, 0x0, 0x0, 0x0, 0x0, 0x0, 0x0, 0x0, 0x0, 0x0, 0x0, 0x0, 0x0, 0x0, 0x0, 0x0, 0x0, 0x0, 0x0, 0x0, 0x0, 0x8, 0x0, 0x0, 0x0, 0xab, 0xb5, 0xcd, 0x39, 0xa1, 0xf6, 0xd5, 0x39, 0x96, 0xf0, 0x6e, 0x39, 0xc, 0x19, 0x8, 0x3a, 0x67, 0xcb, 0xc6, 0x39, 0x38, 0x6c, 0x16, 0x3a, 0x7c, 0x27, 0xd1, 0x39, 0x8e, 0x61, 0x2, 0x3a, 0x13, 0x0, 0x0, 0x0, 0x74, 0x66, 0x6c, 0x2e, 0x70, 0x73, 0x65, 0x75, 0x64, 0x6f, 0x5f, 0x71, 0x63, 0x6f, 0x6e, 0x73, 0x74, 0x31, 0x33, 0x0, 0x1, 0x0, 0x0, 0x0, 0x8, 0x0, 0x0, 0x0, 0x5e, 0xf7, 0xff, 0xff, 0x0, 0x0, 0x0, 0x1, 0x14, 0x0, 0x0, 0x0, 0x34, 0x0, 0x0, 0x0, 0x16, 0x0, 0x0, 0x0, 0x0, 0x0, 0x0, 0x9, 0x40, 0x0, 0x0, 0x0, 0x6c, 0xf9, 0xff, 0xff, 0x8, 0x0, 0x0, 0x0, 0x14, 0x0, 0x0, 0x0, 0x1, 0x0, 0x0, 0x0, 0xe6, 0xff, 0xff, 0xff, 0xff, 0xff, 0xff, 0xff, 0x0, 0x0, 0x0, 0x0, 0x1, 0x0, 0x0, 0x0, 0xae, 0xa5, 0x6c, 0x3b, 0x13, 0x0, 0x0, 0x0, 0x74, 0x66, 0x6c, 0x2e, 0x70, 0x73, 0x65, 0x75, 0x64, 0x6f, 0x5f, 0x71, 0x63, 0x6f, 0x6e, 0x73, 0x74, 0x31, 0x32, 0x0, 0x3, 0x0, 0x0, 0x0, 0x1, 0x0, 0x0, 0x0, 0x1, 0x0, 0x0, 0x0, 0x8, 0x0, 0x0, 0x0, 0xc6, 0xf7, 0xff, 0xff, 0x0, 0x0, 0x0, 0x1, 0x14, 0x0, 0x0, 0x0, 0x88, 0x0, 0x0, 0x0, 0x15, 0x0, 0x0, 0x0, 0x0, 0x0, 0x0, 0x9, 0x94, 0x0, 0x0, 0x0, 0xd4, 0xf9, 0xff, 0xff, 0x8, 0x0, 0x0, 0x0, 0x4c, 0x0, 0x0, 0x0, 0x8, 0x0, 0x0, 0x0, 0x0, 0x0, 0x0, 0x0, 0x0, 0x0, 0x0, 0x0, 0x0, 0x0, 0x0, 0x0, 0x0, 0x0, 0x0, 0x0, 0x0, 0x0, 0x0, 0x0, 0x0, 0x0, 0x0, 0x0, 0x0, 0x0, 0x0, 0x0, 0x0, 0x0, 0x0, 0x0, 0x0, 0x0, 0x0, 0x0, 0x0, 0x0, 0x0, 0x0, 0x0, 0x0, 0x0, 0x0, 0x0, 0x0, 0x0, 0x0, 0x0, 0x0, 0x0, 0x0, 0x0, 0x0, 0x0, 0x0, 0x0, 0x0, 0x0, 0x0, 0x0, 0x0, 0x0, 0x0, 0x0, 0x0, 0x0, 0x0, 0x8, 0x0, 0x0, 0x0, 0xa2, 0x9f, 0x8d, 0x3b, 0x7d, 0xb5, 0x4b, 0x3b, 0x26, 0xcd, 0xd3, 0x3a, 0x2e, 0xad, 0x9d, 0x3b, 0x65, 0x8, 0x89, 0x3b, 0x78, 0x85, 0xc1, 0x3b, 0x3c, 0xb9, 0x43, 0x3b, 0xb, 0x1c, 0x95, 0x3b, 0x13, 0x0, 0x0, 0x0, 0x74, 0x66, 0x6c, 0x2e, 0x70, 0x73, 0x65, 0x75, 0x64, 0x6f, 0x5f, 0x71, 0x63, 0x6f, 0x6e, 0x73, 0x74, 0x31, 0x31, 0x0, 0x4, 0x0, 0x0, 0x0, 0x8, 0x0, 0x0, 0x0, 0x1, 0x0, 0x0, 0x0, 0x1, 0x0, 0x0, 0x0, 0x8, 0x0, 0x0, 0x0, 0x86, 0xf8, 0xff, 0xff, 0x0, 0x0, 0x0, 0x1, 0x14, 0x0, 0x0, 0x0, 0x88, 0x0, 0x0, 0x0, 0x14, 0x0, 0x0, 0x0, 0x0, 0x0, 0x0, 0x9, 0x94, 0x0, 0x0, 0x0, 0x94, 0xfa, 0xff, 0xff, 0x8, 0x0, 0x0, 0x0, 0x4c, 0x0, 0x0, 0x0, 0x8, 0x0, 0x0, 0x0, 0x0, 0x0, 0x0, 0x0, 0x0, 0x0, 0x0, 0x0, 0x0, 0x0, 0x0, 0x0, 0x0, 0x0, 0x0, 0x0, 0x0, 0x0, 0x0, 0x0, 0x0, 0x0, 0x0, 0x0, 0x0, 0x0, 0x0, 0x0, 0x0, 0x0, 0x0, 0x0, 0x0, 0x0, 0x0, 0x0, 0x0, 0x0, 0x0, 0x0, 0x0, 0x0, 0x0, 0x0, 0x0, 0x0, 0x0, 0x0, 0x0, 0x0, 0x0, 0x0, 0x0, 0x0, 0x0, 0x0, 0x0, 0x0, 0x0, 0x0, 0x0, 0x0, 0x0, 0x0, 0x0, 0x0, 0x0, 0x0, 0x8, 0x0, 0x0, 0x0, 0x25, 0x95, 0xc5, 0x3b, 0x6, 0x56, 0x83, 0x3b, 0x37, 0x50, 0x4, 0x3b, 0x4a, 0xf, 0x83, 0x3b, 0xe4, 0xd8, 0x8c, 0x3b, 0xf2, 0x8e, 0x69, 0x3b, 0x6, 0x52, 0x43, 0x3b, 0x87, 0x28, 0x9e, 0x3b, 0x13, 0x0, 0x0, 0x0, 0x74, 0x66, 0x6c, 0x2e, 0x70, 0x73, 0x65, 0x75, 0x64, 0x6f, 0x5f, 0x71, 0x63, 0x6f, 0x6e, 0x73, 0x74, 0x31, 0x30, 0x0, 0x4, 0x0, 0x0, 0x0, 0x8, 0x0, 0x0, 0x0, 0x1, 0x0, 0x0, 0x0, 0x3, 0x0, 0x0, 0x0, 0x8, 0x0, 0x0, 0x0, 0x46, 0xf9, 0xff, 0xff, 0x0, 0x0, 0x0, 0x1, 0x14, 0x0, 0x0, 0x0, 0x34, 0x0, 0x0, 0x0, 0x13, 0x0, 0x0, 0x0, 0x0, 0x0, 0x0, 0x9, 0x40, 0x0, 0x0, 0x0, 0x54, 0xfb, 0xff, 0xff, 0x8, 0x0, 0x0, 0x0, 0x14, 0x0, 0x0, 0x0, 0x1, 0x0, 0x0, 0x0, 0xe1, 0xff, 0xff, 0xff, 0xff, 0xff, 0xff, 0xff, 0x0, 0x0, 0x0, 0x0, 0x1, 0x0, 0x0, 0x0, 0xb, 0x21, 0x3b, 0x3b, 0x12, 0x0, 0x0, 0x0, 0x74, 0x66, 0x6c, 0x2e, 0x70, 0x73, 0x65, 0x75, 0x64, 0x6f, 0x5f, 0x71, 0x63, 0x6f, 0x6e, 0x73, 0x74, 0x39, 0x0, 0x0, 0x3, 0x0, 0x0, 0x0, 0x1, 0x0, 0x0, 0x0, 0x1, 0x0, 0x0, 0x0, 0x8, 0x0, 0x0, 0x0, 0xae, 0xf9, 0xff, 0xff, 0x0, 0x0, 0x0, 0x1, 0x14, 0x0, 0x0, 0x0, 0x34, 0x0, 0x0, 0x0, 0x12, 0x0, 0x0, 0x0, 0x0, 0x0, 0x0, 0x9, 0x40, 0x0, 0x0, 0x0, 0xbc, 0xfb, 0xff, 0xff, 0x8, 0x0, 0x0, 0x0, 0x14, 0x0, 0x0, 0x0, 0x1, 0x0, 0x0, 0x0, 0xee, 0xff, 0xff, 0xff, 0xff, 0xff, 0xff, 0xff, 0x0, 0x0, 0x0, 0x0, 0x1, 0x0, 0x0, 0x0, 0x9d, 0xe6, 0x13, 0x3b, 0x12, 0x0, 0x0, 0x0, 0x74, 0x66, 0x6c, 0x2e, 0x70, 0x73, 0x65, 0x75, 0x64, 0x6f, 0x5f, 0x71, 0x63, 0x6f, 0x6e, 0x73, 0x74, 0x38, 0x0, 0x0, 0x3, 0x0, 0x0, 0x0, 0x1, 0x0, 0x0, 0x0, 0x1, 0x0, 0x0, 0x0, 0x8, 0x0, 0x0, 0x0, 0x16, 0xfa, 0xff, 0xff, 0x0, 0x0, 0x0, 0x1, 0x14, 0x0, 0x0, 0x0, 0x88, 0x0, 0x0, 0x0, 0x11, 0x0, 0x0, 0x0, 0x0, 0x0, 0x0, 0x9, 0x94, 0x0, 0x0, 0x0, 0x24, 0xfc, 0xff, 0xff, 0x8, 0x0, 0x0, 0x0, 0x4c, 0x0, 0x0, 0x0, 0x8, 0x0, 0x0, 0x0, 0x0, 0x0, 0x0, 0x0, 0x0, 0x0, 0x0, 0x0, 0x0, 0x0, 0x0, 0x0, 0x0, 0x0, 0x0, 0x0, 0x0, 0x0, 0x0, 0x0, 0x0, 0x0, 0x0, 0x0, 0x0, 0x0, 0x0, 0x0, 0x0, 0x0, 0x0, 0x0, 0x0, 0x0, 0x0, 0x0, 0x0, 0x0, 0x0, 0x0, 0x0, 0x0, 0x0, 0x0, 0x0, 0x0, 0x0, 0x0, 0x0, 0x0, 0x0, 0x0, 0x0, 0x0, 0x0, 0x0, 0x0, 0x0, 0x0, 0x0, 0x0, 0x0, 0x0, 0x0, 0x0, 0x0, 0x0, 0x0, 0x8, 0x0, 0x0, 0x0, 0xf7, 0x6d, 0x6a, 0x3b, 0x0, 0x13, 0x58, 0x3b, 0xcb, 0x2, 0x6, 0x3c, 0x1a, 0x9c, 0x6b, 0x3b, 0x61, 0xac, 0x94, 0x3b, 0x14, 0x57, 0x4d, 0x3b, 0xfa, 0x58, 0x14, 0x3b, 0x2f, 0x46, 0x9c, 0x3b, 0x12, 0x0, 0x0, 0x0, 0x74, 0x66, 0x6c, 0x2e, 0x70, 0x73, 0x65, 0x75, 0x64, 0x6f, 0x5f, 0x71, 0x63, 0x6f, 0x6e, 0x73, 0x74, 0x37, 0x0, 0x0, 0x4, 0x0, 0x0, 0x0, 0x8, 0x0, 0x0, 0x0, 0x1, 0x0, 0x0, 0x0, 0x3, 0x0, 0x0, 0x0, 0x8, 0x0, 0x0, 0x0, 0xd6, 0xfa, 0xff, 0xff, 0x0, 0x0, 0x0, 0x1, 0x14, 0x0, 0x0, 0x0, 0x34, 0x0, 0x0, 0x0, 0x10, 0x0, 0x0, 0x0, 0x0, 0x0, 0x0, 0x9, 0x40, 0x0, 0x0, 0x0, 0xe4, 0xfc, 0xff, 0xff, 0x8, 0x0, 0x0, 0x0, 0x14, 0x0, 0x0, 0x0, 0x1, 0x0, 0x0, 0x0, 0xbe, 0xff, 0xff, 0xff, 0xff, 0xff, 0xff, 0xff, 0x0, 0x0, 0x0, 0x0, 0x1, 0x0, 0x0, 0x0, 0xc9, 0xdc, 0xc2, 0x3a, 0x12, 0x0, 0x0, 0x0, 0x74, 0x66, 0x6c, 0x2e, 0x70, 0x73, 0x65, 0x75, 0x64, 0x6f, 0x5f, 0x71, 0x63, 0x6f, 0x6e, 0x73, 0x74, 0x36, 0x0, 0x0, 0x3, 0x0, 0x0, 0x0, 0x1, 0x0, 0x0, 0x0, 0x1, 0x0, 0x0, 0x0, 0x8, 0x0, 0x0, 0x0, 0x3e, 0xfb, 0xff, 0xff, 0x0, 0x0, 0x0, 0x1, 0x14, 0x0, 0x0, 0x0, 0x88, 0x0, 0x0, 0x0, 0xf, 0x0, 0x0, 0x0, 0x0, 0x0, 0x0, 0x9, 0x94, 0x0, 0x0, 0x0, 0x4c, 0xfd, 0xff, 0xff, 0x8, 0x0, 0x0, 0x0, 0x4c, 0x0, 0x0, 0x0, 0x8, 0x0, 0x0, 0x0, 0x0, 0x0, 0x0, 0x0, 0x0, 0x0, 0x0, 0x0, 0x0, 0x0, 0x0, 0x0, 0x0, 0x0, 0x0, 0x0, 0x0, 0x0, 0x0, 0x0, 0x0, 0x0, 0x0, 0x0, 0x0, 0x0, 0x0, 0x0, 0x0, 0x0, 0x0, 0x0, 0x0, 0x0, 0x0, 0x0, 0x0, 0x0, 0x0, 0x0, 0x0, 0x0, 0x0, 0x0, 0x0, 0x0, 0x0, 0x0, 0x0, 0x0, 0x0, 0x0, 0x0, 0x0, 0x0, 0x0, 0x0, 0x0, 0x0, 0x0, 0x0, 0x0, 0x0, 0x0, 0x0, 0x0, 0x0, 0x0, 0x8, 0x0, 0x0, 0x0, 0xff, 0xc8, 0xb0, 0x3b, 0x2b, 0xaf, 0x88, 0x3b, 0x73, 0x8d, 0xd0, 0x3b, 0xcd, 0x20, 0x50, 0x3b, 0x8e, 0x6b, 0xa7, 0x3b, 0x83, 0x4d, 0xa1, 0x3b, 0xe1, 0x8e, 0x72, 0x3b, 0x6b, 0x35, 0x81, 0x3b, 0x12, 0x0, 0x0, 0x0, 0x74, 0x66, 0x6c, 0x2e, 0x70, 0x73, 0x65, 0x75, 0x64, 0x6f, 0x5f, 0x71, 0x63, 0x6f, 0x6e, 0x73, 0x74, 0x35, 0x0, 0x0, 0x4, 0x0, 0x0, 0x0, 0x8, 0x0, 0x0, 0x0, 0x1, 0x0, 0x0, 0x0, 0x3, 0x0, 0x0, 0x0, 0x8, 0x0, 0x0, 0x0, 0xfe, 0xfb, 0xff, 0xff, 0x0, 0x0, 0x0, 0x1, 0x14, 0x0, 0x0, 0x0, 0x34, 0x0, 0x0, 0x0, 0xe, 0x0, 0x0, 0x0, 0x0, 0x0, 0x0, 0x9, 0x40, 0x0, 0x0, 0x0, 0xc, 0xfe, 0xff, 0xff, 0x8, 0x0, 0x0, 0x0, 0x14, 0x0, 0x0, 0x0, 0x1, 0x0, 0x0, 0x0, 0xc0, 0xff, 0xff, 0xff, 0xff, 0xff, 0xff, 0xff, 0x0, 0x0, 0x0, 0x0, 0x1, 0x0, 0x0, 0x0, 0x99, 0x5e, 0xb4, 0x3b, 0x12, 0x0, 0x0, 0x0, 0x74, 0x66, 0x6c, 0x2e, 0x70, 0x73, 0x65, 0x75, 0x64, 0x6f, 0x5f, 0x71, 0x63, 0x6f, 0x6e, 0x73, 0x74, 0x34, 0x0, 0x0, 0x3, 0x0, 0x0, 0x0, 0x1, 0x0, 0x0, 0x0, 0x1, 0x0, 0x0, 0x0, 0x8, 0x0, 0x0, 0x0, 0x66, 0xfc, 0xff, 0xff, 0x0, 0x0, 0x0, 0x1, 0x14, 0x0, 0x0, 0x0, 0x88, 0x0, 0x0, 0x0, 0xd, 0x0, 0x0, 0x0, 0x0, 0x0, 0x0, 0x9, 0x94, 0x0, 0x0, 0x0, 0x74, 0xfe, 0xff, 0xff, 0x8, 0x0, 0x0, 0x0, 0x4c, 0x0, 0x0, 0x0, 0x8, 0x0, 0x0, 0x0, 0x0, 0x0, 0x0, 0x0, 0x0, 0x0, 0x0, 0x0, 0x0, 0x0, 0x0, 0x0, 0x0, 0x0, 0x0, 0x0, 0x0, 0x0, 0x0, 0x0, 0x0, 0x0, 0x0, 0x0, 0x0, 0x0, 0x0, 0x0, 0x0, 0x0, 0x0, 0x0, 0x0, 0x0, 0x0, 0x0, 0x0, 0x0, 0x0, 0x0, 0x0, 0x0, 0x0, 0x0, 0x0, 0x0, 0x0, 0x0, 0x0, 0x0, 0x0, 0x0, 0x0, 0x0, 0x0, 0x0, 0x0, 0x0, 0x0, 0x0, 0x0, 0x0, 0x0, 0x0, 0x0, 0x0, 0x0, 0x0, 0x8, 0x0, 0x0, 0x0, 0xf7, 0xa5, 0xad, 0x3b, 0x9b, 0x9d, 0xb4, 0x3b, 0x5, 0xb3, 0x49, 0x3b, 0xa3, 0xc5, 0xe5, 0x3b, 0x9c, 0xcf, 0xa7, 0x3b, 0xde, 0xf4, 0xfd, 0x3b, 0x58, 0x8e, 0xb0, 0x3b, 0xd7, 0x1e, 0xdc, 0x3b, 0x12, 0x0, 0x0, 0x0, 0x74, 0x66, 0x6c, 0x2e, 0x70, 0x73, 0x65, 0x75, 0x64, 0x6f, 0x5f, 0x71, 0x63, 0x6f, 0x6e, 0x73, 0x74, 0x33, 0x0, 0x0, 0x4, 0x0, 0x0, 0x0, 0x8, 0x0, 0x0, 0x0, 0x1, 0x0, 0x0, 0x0, 0x3, 0x0, 0x0, 0x0, 0x8, 0x0, 0x0, 0x0, 0x26, 0xfd, 0xff, 0xff, 0x0, 0x0, 0x0, 0x1, 0x14, 0x0, 0x0, 0x0, 0x34, 0x0, 0x0, 0x0, 0xc, 0x0, 0x0, 0x0, 0x0, 0x0, 0x0, 0x9, 0x40, 0x0, 0x0, 0x0, 0x34, 0xff, 0xff, 0xff, 0x8, 0x0, 0x0, 0x0, 0x14, 0x0, 0x0, 0x0, 0x1, 0x0, 0x0, 0x0, 0xb3, 0xff, 0xff, 0xff, 0xff, 0xff, 0xff, 0xff, 0x0, 0x0, 0x0, 0x0, 0x1, 0x0, 0x0, 0x0, 0xa3, 0x3a, 0x7d, 0x3b, 0x12, 0x0, 0x0, 0x0, 0x74, 0x66, 0x6c, 0x2e, 0x70, 0x73, 0x65, 0x75, 0x64, 0x6f, 0x5f, 0x71, 0x63, 0x6f, 0x6e, 0x73, 0x74, 0x32, 0x0, 0x0, 0x3, 0x0, 0x0, 0x0, 0x1, 0x0, 0x0, 0x0, 0x1, 0x0, 0x0, 0x0, 0x8, 0x0, 0x0, 0x0, 0x8e, 0xfd, 0xff, 0xff, 0x0, 0x0, 0x0, 0x1, 0x14, 0x0, 0x0, 0x0, 0x34, 0x0, 0x0, 0x0, 0xb, 0x0, 0x0, 0x0, 0x0, 0x0, 0x0, 0x9, 0x40, 0x0, 0x0, 0x0, 0x9c, 0xff, 0xff, 0xff, 0x8, 0x0, 0x0, 0x0, 0x14, 0x0, 0x0, 0x0, 0x1, 0x0, 0x0, 0x0, 0x0, 0x0, 0x0, 0x0, 0x0, 0x0, 0x0, 0x0, 0x0, 0x0, 0x0, 0x0, 0x1, 0x0, 0x0, 0x0, 0xe3, 0xb7, 0xbc, 0x3b, 0x12, 0x0, 0x0, 0x0, 0x74, 0x66, 0x6c, 0x2e, 0x70, 0x73, 0x65, 0x75, 0x64, 0x6f, 0x5f, 0x71, 0x63, 0x6f, 0x6e, 0x73, 0x74, 0x31, 0x0, 0x0, 0x2, 0x0, 0x0, 0x0, 0x6, 0x0, 0x0, 0x0, 0x8, 0x0, 0x0, 0x0, 0xf2, 0xfd, 0xff, 0xff, 0x0, 0x0, 0x0, 0x1, 0x20, 0x0, 0x0, 0x0, 0x3c, 0x0, 0x0, 0x0, 0xa, 0x0, 0x0, 0x0, 0x0, 0x0, 0x0, 0x2, 0x48, 0x0, 0x0, 0x0, 0xc, 0x0, 0xc, 0x0, 0x0, 0x0, 0x0, 0x0, 0x8, 0x0, 0x4, 0x0, 0xc, 0x0, 0x0, 0x0, 0x8, 0x0, 0x0, 0x0, 0x10, 0x0, 0x0, 0x0, 0x1, 0x0, 0x0, 0x0, 0x0, 0x0, 0x0, 0x0, 0x0, 0x0, 0x0, 0x0, 0x1, 0x0, 0x0, 0x0, 0xd, 0x89, 0x1a, 0x3a, 0x11, 0x0, 0x0, 0x0, 0x74, 0x66, 0x6c, 0x2e, 0x70, 0x73, 0x65, 0x75, 0x64, 0x6f, 0x5f, 0x71, 0x63, 0x6f, 0x6e, 0x73, 0x74, 0x0, 0x0, 0x0, 0x1, 0x0, 0x0, 0x0, 0x6, 0x0, 0x0, 0x0, 0x5a, 0xfe, 0xff, 0xff, 0x0, 0x0, 0x0, 0x1, 0x14, 0x0, 0x0, 0x0, 0x14, 0x0, 0x0, 0x0, 0x9, 0x0, 0x0, 0x0, 0x0, 0x0, 0x0, 0x2, 0x1c, 0x0, 0x0, 0x0, 0xf0, 0xfd, 0xff, 0xff, 0xf, 0x0, 0x0, 0x0, 0x61, 0x72, 0x69, 0x74, 0x68, 0x2e, 0x63, 0x6f, 0x6e, 0x73, 0x74, 0x61, 0x6e, 0x74, 0x37, 0x0, 0x1, 0x0, 0x0, 0x0, 0x4, 0x0, 0x0, 0x0, 0x96, 0xfe, 0xff, 0xff, 0x0, 0x0, 0x0, 0x1, 0x14, 0x0, 0x0, 0x0, 0x14, 0x0, 0x0, 0x0, 0x8, 0x0, 0x0, 0x0, 0x0, 0x0, 0x0, 0x2, 0x1c, 0x0, 0x0, 0x0, 0x2c, 0xfe, 0xff, 0xff, 0xf, 0x0, 0x0, 0x0, 0x61, 0x72, 0x69, 0x74, 0x68, 0x2e, 0x63, 0x6f, 0x6e, 0x73, 0x74, 0x61, 0x6e, 0x74, 0x36, 0x0, 0x1, 0x0, 0x0, 0x0, 0x4, 0x0, 0x0, 0x0, 0xd2, 0xfe, 0xff, 0xff, 0x0, 0x0, 0x0, 0x1, 0x14, 0x0, 0x0, 0x0, 0x14, 0x0, 0x0, 0x0, 0x7, 0x0, 0x0, 0x0, 0x0, 0x0, 0x0, 0x2, 0x1c, 0x0, 0x0, 0x0, 0x68, 0xfe, 0xff, 0xff, 0xf, 0x0, 0x0, 0x0, 0x61, 0x72, 0x69, 0x74, 0x68, 0x2e, 0x63, 0x6f, 0x6e, 0x73, 0x74, 0x61, 0x6e, 0x74, 0x35, 0x0, 0x1, 0x0, 0x0, 0x0, 0x3, 0x0, 0x0, 0x0, 0xe, 0xff, 0xff, 0xff, 0x0, 0x0, 0x0, 0x1, 0x14, 0x0, 0x0, 0x0, 0x14, 0x0, 0x0, 0x0, 0x6, 0x0, 0x0, 0x0, 0x0, 0x0, 0x0, 0x2, 0x1c, 0x0, 0x0, 0x0, 0xa4, 0xfe, 0xff, 0xff, 0xf, 0x0, 0x0, 0x0, 0x61, 0x72, 0x69, 0x74, 0x68, 0x2e, 0x63, 0x6f, 0x6e, 0x73, 0x74, 0x61, 0x6e, 0x74, 0x34, 0x0, 0x1, 0x0, 0x0, 0x0, 0x4, 0x0, 0x0, 0x0, 0x4a, 0xff, 0xff, 0xff, 0x0, 0x0, 0x0, 0x1, 0x14, 0x0, 0x0, 0x0, 0x14, 0x0, 0x0, 0x0, 0x5, 0x0, 0x0, 0x0, 0x0, 0x0, 0x0, 0x2, 0x1c, 0x0, 0x0, 0x0, 0xe0, 0xfe, 0xff, 0xff, 0xf, 0x0, 0x0, 0x0, 0x61, 0x72, 0x69, 0x74, 0x68, 0x2e, 0x63, 0x6f, 0x6e, 0x73, 0x74, 0x61, 0x6e, 0x74, 0x33, 0x0, 0x1, 0x0, 0x0, 0x0, 0x4, 0x0, 0x0, 0x0, 0x86, 0xff, 0xff, 0xff, 0x0, 0x0, 0x0, 0x1, 0x14, 0x0, 0x0, 0x0, 0x14, 0x0, 0x0, 0x0, 0x4, 0x0, 0x0, 0x0, 0x0, 0x0, 0x0, 0x2, 0x1c, 0x0, 0x0, 0x0, 0x1c, 0xff, 0xff, 0xff, 0xf, 0x0, 0x0, 0x0, 0x61, 0x72, 0x69, 0x74, 0x68, 0x2e, 0x63, 0x6f, 0x6e, 0x73, 0x74, 0x61, 0x6e, 0x74, 0x32, 0x0, 0x1, 0x0, 0x0, 0x0, 0x3, 0x0, 0x0, 0x0, 0xc2, 0xff, 0xff, 0xff, 0x0, 0x0, 0x0, 0x1, 0x14, 0x0, 0x0, 0x0, 0x14, 0x0, 0x0, 0x0, 0x3, 0x0, 0x0, 0x0, 0x0, 0x0, 0x0, 0x2, 0x1c, 0x0, 0x0, 0x0, 0x58, 0xff, 0xff, 0xff, 0xf, 0x0, 0x0, 0x0, 0x61, 0x72, 0x69, 0x74, 0x68, 0x2e, 0x63, 0x6f, 0x6e, 0x73, 0x74, 0x61, 0x6e, 0x74, 0x31, 0x0, 0x1, 0x0, 0x0, 0x0, 0x4, 0x0, 0x0, 0x0, 0x0, 0x0, 0x16, 0x0, 0x1c, 0x0, 0x18, 0x0, 0x17, 0x0, 0x10, 0x0, 0xc, 0x0, 0x8, 0x0, 0x0, 0x0, 0x0, 0x0, 0x0, 0x0, 0x7, 0x0, 0x16, 0x0, 0x0, 0x0, 0x0, 0x0, 0x0, 0x1, 0x14, 0x0, 0x0, 0x0, 0x14, 0x0, 0x0, 0x0, 0x2, 0x0, 0x0, 0x0, 0x0, 0x0, 0x0, 0x2, 0x1c, 0x0, 0x0, 0x0, 0xac, 0xff, 0xff, 0xff, 0xe, 0x0, 0x0, 0x0, 0x61, 0x72, 0x69, 0x74, 0x68, 0x2e, 0x63, 0x6f, 0x6e, 0x73, 0x74, 0x61, 0x6e, 0x74, 0x0, 0x0, 0x2, 0x0, 0x0, 0x0, 0x3, 0x0, 0x0, 0x0, 0x2, 0x0, 0x0, 0x0, 0x0, 0x0, 0x16, 0x0, 0x18, 0x0, 0x14, 0x0, 0x0, 0x0, 0x10, 0x0, 0xc, 0x0, 0x8, 0x0, 0x0, 0x0, 0x0, 0x0, 0x0, 0x0, 0x7, 0x0, 0x16, 0x0, 0x0, 0x0, 0x0, 0x0, 0x0, 0x1, 0x14, 0x0, 0x0, 0x0, 0x14, 0x0, 0x0, 0x0, 0x1, 0x0, 0x0, 0x0, 0x18, 0x0, 0x0, 0x0, 0x4, 0x0, 0x4, 0x0, 0x4, 0x0, 0x0, 0x0, 0x6, 0x0, 0x0, 0x0, 0x69, 0x6e, 0x70, 0x75, 0x74, 0x73, 0x0, 0x0, 0x3, 0x0, 0x0, 0x0, 0x1, 0x0, 0x0, 0x0, 0x80, 0x0, 0x0, 0x0, 0x9, 0x0, 0x0, 0x0, 0x8, 0x0, 0x0, 0x0, 0xb0, 0x0, 0x0, 0x0, 0x90, 0x0, 0x0, 0x0, 0x74, 0x0, 0x0, 0x0, 0x60, 0x0, 0x0, 0x0, 0x54, 0x0, 0x0, 0x0, 0x38, 0x0, 0x0, 0x0, 0x18, 0x0, 0x0, 0x0, 0x4, 0x0, 0x0, 0x0, 0x98, 0xff, 0xff, 0xff, 0x6, 0x0, 0x0, 0x0, 0x2, 0x0, 0x0, 0x0, 0x0, 0x0, 0x0, 0x6, 0xa8, 0xff, 0xff, 0xff, 0x9, 0x0, 0x0, 0x0, 0x4, 0x0, 0x0, 0x0, 0x0, 0x0, 0x0, 0x9, 0xc, 0x0, 0xe, 0x0, 0xd, 0x0, 0x0, 0x0, 0x8, 0x0, 0x4, 0x0, 0xc, 0x0, 0x0, 0x0, 0x11, 0x0, 0x0, 0x0, 0x2, 0x0, 0x0, 0x0, 0x0, 0x11, 0xa, 0x0, 0x8, 0x0, 0x0, 0x0, 0x0, 0x0, 0x4, 0x0, 0xa, 0x0, 0x0, 0x0, 0x2, 0x0, 0x0, 0x0, 0xe4, 0xff, 0xff, 0xff, 0x3, 0x0, 0x0, 0x0, 0x3, 0x0, 0x0, 0x0, 0x0, 0x0, 0x0, 0x3, 0xd8, 0xff, 0xff, 0xff, 0x16, 0x0, 0x0, 0x0, 0x0, 0x0, 0x0, 0x16, 0xc, 0x0, 0x10, 0x0, 0xf, 0x0, 0x0, 0x0, 0x8, 0x0, 0x4, 0x0, 0xc, 0x0, 0x0, 0x0, 0x22, 0x0, 0x0, 0x0, 0x2, 0x0, 0x0, 0x0, 0x0, 0x0, 0x0, 0x22, 0xc, 0x0, 0xc, 0x0, 0xb, 0x0, 0x0, 0x0, 0x0, 0x0, 0x4, 0x0, 0xc, 0x0, 0x0, 0x0, 0x72, 0x0, 0x0, 0x0, 0x0, 0x0, 0x0, 0x72
};
const int g_model_data_len = 13496;
const int g_model_dims[] = {1, 128, 9};
const int g_model_dims_len = 3;
